{
  "version": "1.0",
  "truncation": null,
  "padding": null,
  "added_tokens": [
    {
      "id": 0,
      "content": "<|endoftext|>",
      "single_word": false,
      "lstrip": false,
      "rstrip": false,
      "normalized": false,
      "special": true
    },
    {
      "id": 1,
      "content": "<PAD>",
      "single_word": false,
      "lstrip": false,
      "rstrip": false,
      "normalized": false,
      "special": true
    },
    {
      "id": 2,
      "content": "<UNK>",
      "single_word": false,
      "lstrip": false,
      "rstrip": false,
      "normalized": false,
      "special": true
    }
  ],
  "normalizer": {
    "type": "Sequence",
    "normalizers": [
      {
        "type": "NFKC"
      }
    ]
  },
  "pre_tokenizer": {
    "type": "Sequence",
    "pretokenizers": [
      {
        "type": "Whitespace"
      },
      {
        "type": "Split",
        "pattern": {
          "String": " "
        },
        "behavior": "Removed",
        "invert": false
      }
    ]
  },
  "post_processor": {
    "type": "TemplateProcessing",
    "single": [
      {
        "SpecialToken": {
          "id": "<|endoftext|>",
          "type_id": 0
        }
      },
      {
        "Sequence": {
          "id": "A",
          "type_id": 0
        }
      },
      {
        "SpecialToken": {
          "id": "<|endoftext|>",
          "type_id": 0
        }
      }
    ],
    "pair": [
      {
        "Sequence": {
          "id": "A",
          "type_id": 0
        }
      },
      {
        "Sequence": {
          "id": "B",
          "type_id": 1
        }
      }
    ],
    "special_tokens": {
      "<|endoftext|>": {
        "id": "<|endoftext|>",
        "ids": [
          0
        ],
        "tokens": [
          "<|endoftext|>"
        ]
      }
    }
  },
  "decoder": null,
  "model": {
    "type": "BPE",
    "dropout": null,
    "unk_token": "<UNK>",
    "continuing_subword_prefix": null,
    "end_of_word_suffix": null,
    "fuse_unk": false,
    "byte_fallback": false,
    "ignore_merges": false,
    "vocab": {
      "<|endoftext|>": 0,
      "<PAD>": 1,
      "<UNK>": 2,
      "!": 3,
      "'": 4,
      ",": 5,
      "-": 6,
      ".": 7,
      "0": 8,
      "1": 9,
      "2": 10,
      "3": 11,
      "4": 12,
      "5": 13,
      "6": 14,
      "7": 15,
      "8": 16,
      "9": 17,
      ";": 18,
      "<": 19,
      ">": 20,
      "E": 21,
      "H": 22,
      "M": 23,
      "R": 24,
      "Y": 25,
      "[": 26,
      "]": 27,
      "_": 28,
      "ં": 29,
      "ઃ": 30,
      "અ": 31,
      "આ": 32,
      "ઇ": 33,
      "ઈ": 34,
      "ઉ": 35,
      "ઊ": 36,
      "ઋ": 37,
      "એ": 38,
      "ઐ": 39,
      "ઓ": 40,
      "ઔ": 41,
      "ક": 42,
      "ખ": 43,
      "ગ": 44,
      "ઘ": 45,
      "ચ": 46,
      "છ": 47,
      "જ": 48,
      "ઝ": 49,
      "ઞ": 50,
      "ટ": 51,
      "ઠ": 52,
      "ડ": 53,
      "ઢ": 54,
      "ણ": 55,
      "ત": 56,
      "થ": 57,
      "દ": 58,
      "ધ": 59,
      "ન": 60,
      "પ": 61,
      "ફ": 62,
      "બ": 63,
      "ભ": 64,
      "મ": 65,
      "ય": 66,
      "ર": 67,
      "લ": 68,
      "ળ": 69,
      "વ": 70,
      "શ": 71,
      "ષ": 72,
      "સ": 73,
      "હ": 74,
      "ઽ": 75,
      "ા": 76,
      "િ": 77,
      "ી": 78,
      "ુ": 79,
      "ૂ": 80,
      "ૃ": 81,
      "ે": 82,
      "ૈ": 83,
      "ો": 84,
      "ૌ": 85,
      "્": 86,
      "ૐ": 87,
      "ૠ": 88,
      "૧": 89,
      "‌": 90,
      "‍": 91,
      "્ય": 92,
      "E_": 93,
      "HY": 94,
      "ME_": 95,
      "RHY": 96,
      "ME_2": 97,
      "RHYME_2": 98,
      "ાં": 99,
      "RHYME_20": 100,
      "રે": 101,
      "ાર": 102,
      "ું": 103,
      ">,": 104,
      "ને": 105,
      "્યા": 106,
      "્ર": 107,
      "RHYME_21": 108,
      "તે": 109,
      "વા": 110,
      ">;": 111,
      ">.": 112,
      "ામ": 113,
      "કર": 114,
      "ર્": 115,
      "જે": 116,
      "િય": 117,
      "RHYME_206": 118,
      "ના": 119,
      "છે": 120,
      "મા": 121,
      "્ત": 122,
      "માં": 123,
      "પ્ર": 124,
      "કહ": 125,
      "જી": 126,
      "વે": 127,
      "જન": 128,
      "જા": 129,
      "વિ": 130,
      "ળી": 131,
      "સુ": 132,
      "રા": 133,
      "સં": 134,
      "ની": 135,
      "ત્ય": 136,
      "આવ": 137,
      "્યો": 138,
      "ક્ત": 139,
      "RHYME_207": 140,
      "તિ": 141,
      "હર": 142,
      "હુ": 143,
      "મે": 144,
      "RHYME_208": 145,
      "પા": 146,
      "છી": 147,
      "તા": 148,
      "પછી": 149,
      "નિ": 150,
      "RHYME_209": 151,
      "ભક્ત": 152,
      "હરિ": 153,
      "દે": 154,
      "RHYME_210": 155,
      "લા": 156,
      "ભા": 157,
      "ંદ": 158,
      "કા": 159,
      "રહ": 160,
      "RHYME_212": 161,
      "યા": 162,
      "RHYME_211": 163,
      "કરી": 164,
      "જો": 165,
      "થી": 166,
      "હિ": 167,
      "દા": 168,
      "RHYME_205": 169,
      "મો": 170,
      "દિ": 171,
      "ણી": 172,
      "િયા": 173,
      "્યું": 174,
      "તો": 175,
      "ારી": 176,
      "કહે": 177,
      "એમ": 178,
      "વી": 179,
      "સ્": 180,
      "ણે": 181,
      "સા": 182,
      "મુ": 183,
      "રી": 184,
      "વળી": 185,
      "બા": 186,
      "નો": 187,
      "ત્ર": 188,
      "દી": 189,
      "દ્": 190,
      "નંદ": 191,
      "ષ્": 192,
      "્યાં": 193,
      "પર": 194,
      "RHYME_213": 195,
      "કો": 196,
      "સહુ": 197,
      "ારા": 198,
      "થા": 199,
      "આપ": 200,
      "ચા": 201,
      "શે": 202,
      "નાથ": 203,
      "લી": 204,
      "ડી": 205,
      "એક": 206,
      "્યારે": 207,
      "બી": 208,
      "કે": 209,
      "અતિ": 210,
      "હા": 211,
      "લો": 212,
      "િયાં": 213,
      "મી": 214,
      "ભુ": 215,
      "બહુ": 216,
      "આવ્યા": 217,
      "બે": 218,
      "મન": 219,
      "લે": 220,
      "કરે": 221,
      "ંગ": 222,
      "ક્": 223,
      "ત્યાં": 224,
      "સંત": 225,
      "સર્": 226,
      "વન": 227,
      "પો": 228,
      "સે": 229,
      "દર": 230,
      "ગી": 231,
      "ગામ": 232,
      "તાં": 233,
      "સુખ": 234,
      "નામ": 235,
      "હે": 236,
      "પ્રભુ": 237,
      "ક્ષ": 238,
      "પૂ": 239,
      "સર્વે": 240,
      "નહિ": 241,
      "પુ": 242,
      "કહી": 243,
      "બો": 244,
      "કૃ": 245,
      "વાત": 246,
      "ધાર": 247,
      "રહે": 248,
      "નું": 249,
      "ખા": 250,
      "ડે": 251,
      "શ્ર": 252,
      "દાસ": 253,
      "રૂ": 254,
      "રામ": 255,
      "ળે": 256,
      "સું": 257,
      "શી": 258,
      "મહ": 259,
      "જાણ": 260,
      "ંત": 261,
      "યો": 262,
      "તેને": 263,
      "લ્યા": 264,
      "ત્યારે": 265,
      "તમે": 266,
      "ધન": 267,
      "શો": 268,
      "ટે": 269,
      "શન": 270,
      "સાં": 271,
      "વું": 272,
      "ણા": 273,
      "મૂ": 274,
      "તી": 275,
      "વાર": 276,
      "સો": 277,
      "તેહ": 278,
      "ત્": 279,
      "સુંદર": 280,
      "એહ": 281,
      "બાઈ": 282,
      "ખી": 283,
      "કી": 284,
      "ષ્ણ": 285,
      "તિયાં": 286,
      "ગુ": 287,
      "જ્યો": 288,
      "ધી": 289,
      "સ્વા": 290,
      "નાં": 291,
      "ભાઈ": 292,
      "ગો": 293,
      "મહારા": 294,
      "દર્": 295,
      "શ્": 296,
      "ખે": 297,
      "ધર્": 298,
      "ડા": 299,
      "પાર": 300,
      "નર": 301,
      "શું": 302,
      "ગે": 303,
      "પી": 304,
      "રુ": 305,
      "જોઈ": 306,
      "્યે": 307,
      "સાંભ": 308,
      "દુ": 309,
      "વો": 310,
      "સાર": 311,
      "થાય": 312,
      "ત્ત": 313,
      "પણ": 314,
      "ળા": 315,
      "કુ": 316,
      "િયે": 317,
      "ભે": 318,
      "શ્રી": 319,
      "મને": 320,
      "અન": 321,
      "દયા": 322,
      "શા": 323,
      "મોટ": 324,
      "માર": 325,
      "દર્શન": 326,
      "કૃષ્ણ": 327,
      "કોઈ": 328,
      "દ્ધ": 329,
      "ચર": 330,
      "ઠા": 331,
      "થયા": 332,
      "સ્વામી": 333,
      "78": 334,
      "63": 335,
      "મળ": 336,
      "માન": 337,
      "આવી": 338,
      "ધન્ય": 339,
      "તન": 340,
      "સ્ત": 341,
      "હી": 342,
      "ણો": 343,
      "26": 344,
      "વર": 345,
      "હ્": 346,
      "રહ્યા": 347,
      "પે": 348,
      "યે": 349,
      "હો": 350,
      "પામ": 351,
      "દ્ર": 352,
      "RHYME_2063": 353,
      "સી": 354,
      "ગા": 355,
      "નથી": 356,
      "રો": 357,
      "ભૂ": 358,
      "મહારાજ": 359,
      "ધર્મ": 360,
      "77": 361,
      "20": 362,
      "બ્ર": 363,
      "સમ": 364,
      "દ્વિ": 365,
      "50": 366,
      "61": 367,
      "ભગ": 368,
      "41": 369,
      "હરિજન": 370,
      "િયો": 371,
      "કહું": 372,
      "દ્વિજ": 373,
      "79": 374,
      "ણું": 375,
      "શ્યા": 376,
      "ધા": 377,
      "25": 378,
      "ંડ": 379,
      "એવા": 380,
      "થઈ": 381,
      "વિના": 382,
      "મુનિ": 383,
      "જેહ": 384,
      "RHYME_2068": 385,
      "45": 386,
      "ધિ": 387,
      "68": 388,
      "ચો": 389,
      "શિ": 390,
      "કાર": 391,
      "ત્યે": 392,
      "થે": 393,
      "પોતે": 394,
      "આદિ": 395,
      "્ન": 396,
      "કાં": 397,
      "માંઇ": 398,
      "કહીએ": 399,
      "કટ": 400,
      "વ્યા": 401,
      "69": 402,
      "વાન": 403,
      "મળી": 404,
      "વર્": 405,
      "કર્યો": 406,
      "જમ": 407,
      "30": 408,
      "ત્યાંથી": 409,
      "જુ": 410,
      "ત્યા": 411,
      "માંહિ": 412,
      "ચાર": 413,
      "છો": 414,
      "સિ": 415,
      "તાર": 416,
      "44": 417,
      "આજ": 418,
      "RHYME_2061": 419,
      "દયાળ": 420,
      "ચિ": 421,
      "70": 422,
      "સર": 423,
      "કણ": 424,
      "દેશ": 425,
      "કામ": 426,
      "ગયા": 427,
      "23": 428,
      "ચ્": 429,
      "28": 430,
      "શ્યામ": 431,
      "91": 432,
      "થય": 433,
      "દેવ": 434,
      "હું": 435,
      "અલ": 436,
      "પધાર": 437,
      "ચાલ્યા": 438,
      "હ્મ": 439,
      "51": 440,
      "સત": 441,
      "અંત": 442,
      "40": 443,
      "કણબી": 444,
      "રણ": 445,
      "અવ": 446,
      "અપાર": 447,
      "ષ્ટ": 448,
      "અમે": 449,
      "દો": 450,
      "દુઃ": 451,
      "છા": 452,
      "48": 453,
      "માટે": 454,
      "પ્રા": 455,
      "જીવ": 456,
      "ણાં": 457,
      "વૈ": 458,
      "27": 459,
      "53": 460,
      "સંગી": 461,
      "િક": 462,
      "21": 463,
      "60": 464,
      "93": 465,
      "પ્રકટ": 466,
      "90": 467,
      "વસે": 468,
      "ખો": 469,
      "ઘે": 470,
      "ગન": 471,
      "હવે": 472,
      "જીવન": 473,
      "98": 474,
      "દન": 475,
      "તેણે": 476,
      "જેમ": 477,
      "RHYME_2091": 478,
      "સન": 479,
      "જાય": 480,
      "ત્રી": 481,
      "ધો": 482,
      "RHYME_2058": 483,
      "47": 484,
      "જેને": 485,
      "સુર": 486,
      "આપે": 487,
      "સાંભળ": 488,
      "કં": 489,
      "ડો": 490,
      "શુ": 491,
      "લઈ": 492,
      "38": 493,
      "નારી": 494,
      "કાજ": 495,
      "ત્સ": 496,
      "67": 497,
      "કરા": 498,
      "24": 499,
      "આવે": 500,
      "જ્યારે": 501,
      "દુઃખ": 502,
      "રંગ": 503,
      "સામ": 504,
      "08": 505,
      "સંગ": 506,
      "રૂપ": 507,
      "ધાં": 508,
      "હાથ": 509,
      "આનંદ": 510,
      "વૃ": 511,
      "નાર": 512,
      "ધુ": 513,
      "મોટા": 514,
      "થયો": 515,
      "94": 516,
      "સુણી": 517,
      "RHYME_2078": 518,
      "ઠી": 519,
      "કું": 520,
      "અંગ": 521,
      "નિર": 522,
      "ભગવાન": 523,
      "અમ": 524,
      "કહ્યું": 525,
      "નિજ": 526,
      "દેહ": 527,
      "31": 528,
      "એવી": 529,
      "માંય": 530,
      "શોભે": 531,
      "35": 532,
      "સમા": 533,
      "કેમ": 534,
      "કાળ": 535,
      "જ્": 536,
      "ભો": 537,
      "બેઠા": 538,
      "રાજ": 539,
      "22": 540,
      "એવું": 541,
      "પોતા": 542,
      "ચંદ": 543,
      "ભક્તિ": 544,
      "આં": 545,
      "RHYME_2108": 546,
      "બોલ્યા": 547,
      "્રે": 548,
      "ક્ષત્રી": 549,
      "પ્રી": 550,
      "બીજા": 551,
      "ડ્યા": 552,
      "વ્ય": 553,
      "RHYME_2080": 554,
      "લીલા": 555,
      "ઘેર": 556,
      "71": 557,
      "તમ": 558,
      "પાસ": 559,
      "સ્વ": 560,
      "પ્રાણ": 561,
      "તું": 562,
      "ધ્યા": 563,
      "ધામ": 564,
      "યણ": 565,
      "ઉત્સ": 566,
      "ક્ર": 567,
      "હાર": 568,
      "RHYME_2101": 569,
      "ચાલ": 570,
      "લોક": 571,
      "RHYME_2060": 572,
      "ભાવ": 573,
      "હેર": 574,
      "સ્ત્ર": 575,
      "કરવા": 576,
      "દાન": 577,
      "મુખ": 578,
      "પુર": 579,
      "રાજી": 580,
      "RHYME_2070": 581,
      "ઉત્સવ": 582,
      "95": 583,
      "જાણી": 584,
      "લાલ": 585,
      "નારા": 586,
      "કર્યું": 587,
      "કાંઈ": 588,
      "મારે": 589,
      "સાથ": 590,
      "મૂર": 591,
      "બ્રહ્મ": 592,
      "વાં": 593,
      "ાનંદ": 594,
      "તેની": 595,
      "ર્થ": 596,
      "પ્રભુજી": 597,
      "ગર": 598,
      "ગ્ય": 599,
      "જમા": 600,
      "પં": 601,
      "પ્રે": 602,
      "RHYME_2065": 603,
      "34": 604,
      "જય": 605,
      "પાળ": 606,
      "ખ્યા": 607,
      "પિ": 608,
      "નિત્ય": 609,
      "75": 610,
      "ઇચ્": 611,
      "છું": 612,
      "તર": 613,
      "ધર": 614,
      "પાય": 615,
      "RHYME_2131": 616,
      "99": 617,
      "આવ્યો": 618,
      "લાગ": 619,
      "તેમ": 620,
      "RHYME_2071": 621,
      "નારાયણ": 622,
      "પતિ": 623,
      "ભજે": 624,
      "65": 625,
      "દિન": 626,
      "પુરુ": 627,
      "પુરુષ": 628,
      "બુ": 629,
      "રહી": 630,
      "બાળ": 631,
      "સતસંગી": 632,
      "જ્ઞ": 633,
      "સંગે": 634,
      "RHYME_2098": 635,
      "તુ": 636,
      "RHYME_2090": 637,
      "આપી": 638,
      "બોલ": 639,
      "સાંભળી": 640,
      "લુ": 641,
      "વસ": 642,
      "કરતાં": 643,
      "ફૂ": 644,
      "ચન": 645,
      "ૈયે": 646,
      "વાય": 647,
      "પધાર્યા": 648,
      "37": 649,
      "ઘણું": 650,
      "જગ": 651,
      "જનને": 652,
      "RHYME_2081": 653,
      "ધું": 654,
      "ભી": 655,
      "વળ": 656,
      "ગુણ": 657,
      "હોય": 658,
      "ગ્ર": 659,
      "ામાં": 660,
      "અન્ન": 661,
      "64": 662,
      "કરો": 663,
      "તેમાં": 664,
      "સખા": 665,
      "વાસ": 666,
      "ટા": 667,
      "બં": 668,
      "નીર્": 669,
      "પાવન": 670,
      "થયાં": 671,
      "અં": 672,
      "ઘો": 673,
      "જને": 674,
      "લખ": 675,
      "અવિના": 676,
      "સત્ય": 677,
      "સારી": 678,
      "જાણે": 679,
      "મૂરતિ": 680,
      "ઘણી": 681,
      "RHYME_2100": 682,
      "સહ": 683,
      "તાપ": 684,
      "ઝાર": 685,
      "વણ": 686,
      "આવિયા": 687,
      "દીધાં": 688,
      "િયું": 689,
      "મોઝાર": 690,
      "જાણો": 691,
      "સુત": 692,
      "RHYME_2075": 693,
      "RHYME_2110": 694,
      "હાદિ": 695,
      "33": 696,
      "ચી": 697,
      "દઈ": 698,
      "ભર": 699,
      "ઠો": 700,
      "લહી": 701,
      "RHYME_2111": 702,
      "થયું": 703,
      "હેત": 704,
      "અનુ": 705,
      "અંતર": 706,
      "એહાદિ": 707,
      "મહા": 708,
      "નીર": 709,
      "મળ્યા": 710,
      "ટી": 711,
      "તેનો": 712,
      "દીઠા": 713,
      "સહુને": 714,
      "સિં": 715,
      "62": 716,
      "જિયાં": 717,
      "ણ્ય": 718,
      "ષ્ય": 719,
      "પાસે": 720,
      "વચન": 721,
      "સુણો": 722,
      "લહીએ": 723,
      "વ્ર": 724,
      "માંઈ": 725,
      "પ્રમા": 726,
      "RHYME_2121": 727,
      "મારું": 728,
      "મારી": 729,
      "હતા": 730,
      "ારામ": 731,
      "RHYME_2128": 732,
      "કોટ": 733,
      "શ્રીકૃષ્ણ": 734,
      "મિ": 735,
      "મુક્ત": 736,
      "જમ્યા": 737,
      "ઉત્ત": 738,
      "જળ": 739,
      "કર્યા": 740,
      "નિર્": 741,
      "બીજ": 742,
      "97": 743,
      "ઉપ": 744,
      "ાન": 745,
      "િર": 746,
      "વિચાર": 747,
      "ક્ષા": 748,
      "અલબે": 749,
      "એને": 750,
      "ઘા": 751,
      "યું": 752,
      "RHYME_2085": 753,
      "પડ": 754,
      "બર": 755,
      "લ્ય": 756,
      "ૌક": 757,
      "સંતને": 758,
      "સૂ": 759,
      "રાત્ય": 760,
      "RHYME_2118": 761,
      "સાધુ": 762,
      "કારી": 763,
      "ચે": 764,
      "મગન": 765,
      "RHYME_2088": 766,
      "ચર્ય": 767,
      "દોય": 768,
      "દિયે": 769,
      "િત": 770,
      "્મ": 771,
      "સુજાણ": 772,
      "અસુર": 773,
      "રાય": 774,
      "દેખે": 775,
      "નાર્ય": 776,
      "ઠે": 777,
      "ર્ય": 778,
      "ભાવે": 779,
      "સરવે": 780,
      "નીર્ખી": 781,
      "ગઢ": 782,
      "ઘર": 783,
      "ઝા": 784,
      "નવ": 785,
      "થાશે": 786,
      "થકી": 787,
      "નમો": 788,
      "પર્": 789,
      "ભરી": 790,
      "દરશન": 791,
      "ફૂલ": 792,
      "ઉપર": 793,
      "જઈ": 794,
      "દીન": 795,
      "અલૌક": 796,
      "રસ": 797,
      "રાખ": 798,
      "ગુરુ": 799,
      "સિદ્ધ": 800,
      "66": 801,
      "કર્યાં": 802,
      "પ્રસન": 803,
      "તજી": 804,
      "રમ": 805,
      "RHYME_2073": 806,
      "RHYME_2083": 807,
      "અવિનાશ": 808,
      "તમને": 809,
      "સમે": 810,
      "અવતાર": 811,
      "ભોજન": 812,
      "74": 813,
      "બાં": 814,
      "કોણ": 815,
      "પ્રસન્ન": 816,
      "29": 817,
      "આશ્": 818,
      "ચારી": 819,
      "તપ": 820,
      "વ્યો": 821,
      "RHYME_2069": 822,
      "જોડી": 823,
      "પૂજા": 824,
      "ત્યાગી": 825,
      "ક્યાં": 826,
      "ધારી": 827,
      "બાર": 828,
      "સોઈ": 829,
      "પધારિયા": 830,
      "અને": 831,
      "ઘન": 832,
      "મળે": 833,
      "પામ્યા": 834,
      "સમાધિ": 835,
      "ન્": 836,
      "િત્ર": 837,
      "RHYME_20620": 838,
      "RHYME_2105": 839,
      "ચરિત્ર": 840,
      "આશ્ચર્ય": 841,
      "યાં": 842,
      "ાહ્મ": 843,
      "પાપી": 844,
      "બ્રાહ્મ": 845,
      "મતિ": 846,
      "મેં": 847,
      "RHYME_2120": 848,
      "સહિ": 849,
      "પહે": 850,
      "ભાર": 851,
      "જેણે": 852,
      "આવ્યાં": 853,
      "તણી": 854,
      "ષિ": 855,
      "સદા": 856,
      "RHYME_2115": 857,
      "ોત્ત": 858,
      "તેનું": 859,
      "RHYME_20663": 860,
      "RHYME_2079": 861,
      "મનુ": 862,
      "દાસને": 863,
      "લાવ્યા": 864,
      "RHYME_2129": 865,
      "ધીર": 866,
      "શ્રીહરિ": 867,
      "સાંભળો": 868,
      "બોલિયા": 869,
      "બ્રાહ્મણ": 870,
      "ણિ": 871,
      "તને": 872,
      "RHYME_20650": 873,
      "RHYME_2074": 874,
      "સાથે": 875,
      "ઘણા": 876,
      "વજી": 877,
      "શહેર": 878,
      "વિપ્ર": 879,
      "હેતે": 880,
      "જાણું": 881,
      "વૈરા": 882,
      "અનુપ": 883,
      "ડાં": 884,
      "પાં": 885,
      "ર્તિ": 886,
      "દેખી": 887,
      "RHYME_2059": 888,
      "દિવસ": 889,
      "મારો": 890,
      "કળ": 891,
      "ધરી": 892,
      "RHYME_2067": 893,
      "RHYME_2087": 894,
      "પૂરણ": 895,
      "બ્રહ્": 896,
      "અલૌકિક": 897,
      "ઋષિ": 898,
      "જ્યા": 899,
      "ફળ": 900,
      "લાં": 901,
      "RHYME_2134": 902,
      "બોલે": 903,
      "વરતા": 904,
      "ક્રો": 905,
      "ઊતર": 906,
      "જમે": 907,
      "ડવા": 908,
      "પવિ": 909,
      "મર": 910,
      "તેના": 911,
      "RHYME_2093": 912,
      "RHYME_2055": 913,
      "સતસંગ": 914,
      "પંચ": 915,
      "અર્": 916,
      "એવો": 917,
      "જાર": 918,
      "ળિયા": 919,
      "સત્": 920,
      "મોહ": 921,
      "RHYME_2130": 922,
      "પવિત્ર": 923,
      "વસ્ત્ર": 924,
      "જેવા": 925,
      "RHYME_2064": 926,
      "માસ": 927,
      "માને": 928,
      "પ્રતાપ": 929,
      "જાનંદ": 930,
      "વિંદ": 931,
      "પાપ": 932,
      "તાત": 933,
      "પરચો": 934,
      "કેશ": 935,
      "યોગી": 936,
      "લું": 937,
      "શં": 938,
      "વાલો": 939,
      "દેવા": 940,
      "હાથે": 941,
      "કહીને": 942,
      "નરનારી": 943,
      "વર્ણી": 944,
      "ોત્તમ": 945,
      "ગમ": 946,
      "મંડ": 947,
      "મેલી": 948,
      "કહેવાય": 949,
      "કથા": 950,
      "જામ": 951,
      "ડિયા": 952,
      "દાર": 953,
      "રૂડી": 954,
      "ગોવિંદ": 955,
      "નરનાર્ય": 956,
      "ક્યારે": 957,
      "ઠું": 958,
      "રથ": 959,
      "વિષ": 960,
      "સુતાર": 961,
      "દેખા": 962,
      "RHYME_2112": 963,
      "શીખ": 964,
      "મૂળ": 965,
      "સહજાનંદ": 966,
      "અનેક": 967,
      "ઉં": 968,
      "જ્યાં": 969,
      "ભય": 970,
      "મારા": 971,
      "તેનાં": 972,
      "RHYME_2084": 973,
      "RHYME_2054": 974,
      "નાથે": 975,
      "તત": 976,
      "થો": 977,
      "ફે": 978,
      "ફરે": 979,
      "ભજન": 980,
      "લિ": 981,
      "ર્ત": 982,
      "વેદ": 983,
      "RHYME_2077": 984,
      "RHYME_2103": 985,
      "મોર": 986,
      "પરચા": 987,
      "કુળ": 988,
      "બુદ્ધ": 989,
      "જ્ઞાન": 990,
      "ખુ": 991,
      "ગાર": 992,
      "ફર": 993,
      "મંદ": 994,
      "વિયા": 995,
      "કરીને": 996,
      "ધૂ": 997,
      "નય": 998,
      "RHYME_2095": 999,
      "સાક્ષા": 1000,
      "પૂછ": 1001,
      "શોભા": 1002,
      "સોય": 1003,
      "શ્વર": 1004,
      "ત્યાગ": 1005,
      "ઉત્તર": 1006,
      "ંત્ર": 1007,
      "વાટ": 1008,
      "RHYME_20677": 1009,
      "પ્રસા": 1010,
      "RHYME_2097": 1011,
      "RHYME_2126": 1012,
      "RHYME_2133": 1013,
      "મનમાં": 1014,
      "મૂર્તિ": 1015,
      "અંતરે": 1016,
      "કોટિ": 1017,
      "સહિત": 1018,
      "કલ્યા": 1019,
      "પું": 1020,
      "માંડ": 1021,
      "સાંભળજ્યો": 1022,
      "ઘણાં": 1023,
      "ધરા": 1024,
      "હશે": 1025,
      "તેજ": 1026,
      "વાસી": 1027,
      "પૂર": 1028,
      "નિરધાર": 1029,
      "વ્રત": 1030,
      "વૈરાગ્ય": 1031,
      "આશ": 1032,
      "ઇન્": 1033,
      "પડે": 1034,
      "રસોઈ": 1035,
      "નેહ": 1036,
      "કરું": 1037,
      "વીર": 1038,
      "આપ્યાં": 1039,
      "ગાય": 1040,
      "પ્રમાણ": 1041,
      "બીજાં": 1042,
      "ગળ": 1043,
      "ભારી": 1044,
      "ૈયા": 1045,
      "મોદ": 1046,
      "સેવ": 1047,
      "સારું": 1048,
      "શાસ્ત્ર": 1049,
      "પામે": 1050,
      "અંગે": 1051,
      "ધ્યાન": 1052,
      "અષ્ટ": 1053,
      "તણું": 1054,
      "મનો": 1055,
      "વત": 1056,
      "હજાર": 1057,
      "વાળ": 1058,
      "વારે": 1059,
      "વાણી": 1060,
      "જાઓ": 1061,
      "RHYME_2104": 1062,
      "RHYME_2119": 1063,
      "સ્તુ": 1064,
      "પોતાને": 1065,
      "પુરુષોત્તમ": 1066,
      "મનુષ્ય": 1067,
      "ક્રોધ": 1068,
      "32": 1069,
      "ગણ": 1070,
      "દશ": 1071,
      "ફરી": 1072,
      "શ્ય": 1073,
      "RHYME_2062": 1074,
      "માથે": 1075,
      "RHYME_2086": 1076,
      "RHYME_2089": 1077,
      "નિષ્": 1078,
      "RHYME_2123": 1079,
      "મુખે": 1080,
      "જાણ્યું": 1081,
      "સારો": 1082,
      "શાલ": 1083,
      "ચિત્ત": 1084,
      "ઉદ્ધ": 1085,
      "મંગ": 1086,
      "વંત": 1087,
      "સુણ": 1088,
      "કાન": 1089,
      "સ્થ": 1090,
      "ઇચ્છે": 1091,
      "એવાં": 1092,
      "ઘડી": 1093,
      "હરિભક્ત": 1094,
      "શુદ્ધ": 1095,
      "ચાલિયા": 1096,
      "કિ": 1097,
      "તારી": 1098,
      "બળ": 1099,
      "લિયે": 1100,
      "પ્રકા": 1101,
      "વિધિ": 1102,
      "રહ્યો": 1103,
      "પોત્યે": 1104,
      "નામે": 1105,
      "મોટી": 1106,
      "કલ્યાણ": 1107,
      "87": 1108,
      "ગયો": 1109,
      "તણા": 1110,
      "રળિયા": 1111,
      "કહો": 1112,
      "નિદાન": 1113,
      "તોય": 1114,
      "પરમ": 1115,
      "ગઢડે": 1116,
      "રળિયાત": 1117,
      "54": 1118,
      "ંદે": 1119,
      "મય": 1120,
      "RHYME_20668": 1121,
      "RHYME_2072": 1122,
      "RHYME_2076": 1123,
      "નિશ્": 1124,
      "ભાગ": 1125,
      "રહ્યાં": 1126,
      "RHYME_2057": 1127,
      "ત્રણ": 1128,
      "RHYME_206134": 1129,
      "ચિંત": 1130,
      "લાગ્યા": 1131,
      "ખ્ય": 1132,
      "તમારે": 1133,
      "મૃ": 1134,
      "યુ": 1135,
      "શરી": 1136,
      "ૂર": 1137,
      "પ્રત્યે": 1138,
      "જની": 1139,
      "કાઢ": 1140,
      "સ્પર": 1141,
      "લીધો": 1142,
      "કૃપા": 1143,
      "મહારાજે": 1144,
      "શ્વ": 1145,
      "વણિક": 1146,
      "52": 1147,
      "57": 1148,
      "આધાર": 1149,
      "ઉર": 1150,
      "કૈ": 1151,
      "ગંગ": 1152,
      "ટો": 1153,
      "RHYME_20626": 1154,
      "RHYME_20651": 1155,
      "કહેતાં": 1156,
      "રીત્ય": 1157,
      "કોળી": 1158,
      "શેઠ": 1159,
      "પ્રીત": 1160,
      "09": 1161,
      "અમને": 1162,
      "એકા": 1163,
      "પૃ": 1164,
      "RHYME_20645": 1165,
      "રાજા": 1166,
      "RHYME_2109": 1167,
      "આપ્યો": 1168,
      "આપણે": 1169,
      "લીધી": 1170,
      "ત્યાંઈ": 1171,
      "ગામે": 1172,
      "દ્રવ્ય": 1173,
      "વર્ણ": 1174,
      "અલબેલો": 1175,
      "96": 1176,
      "જણા": 1177,
      "નુ": 1178,
      "પટે": 1179,
      "માની": 1180,
      "રામાનંદ": 1181,
      "ત્તિ": 1182,
      "સાક્ષાત": 1183,
      "જિ": 1184,
      "ડું": 1185,
      "તલ": 1186,
      "તણો": 1187,
      "દ્ય": 1188,
      "તેડી": 1189,
      "તેડા": 1190,
      "માનંદ": 1191,
      "વિચારી": 1192,
      "હરિને": 1193,
      "RHYME_2113": 1194,
      "RHYME_2132": 1195,
      "બીજે": 1196,
      "શ્વે": 1197,
      "અનંત": 1198,
      "ભૂત": 1199,
      "વર્ષ": 1200,
      "ઘેર્ય": 1201,
      "સિંઘ": 1202,
      "76": 1203,
      "આગે": 1204,
      "જમી": 1205,
      "જગન": 1206,
      "ઠામ": 1207,
      "તણાં": 1208,
      "તર્ત": 1209,
      "દૈ": 1210,
      "ફા": 1211,
      "શને": 1212,
      "તેડવા": 1213,
      "માત": 1214,
      "માળા": 1215,
      "જીને": 1216,
      "રાણ": 1217,
      "ભાગ્ય": 1218,
      "વારતા": 1219,
      "સોની": 1220,
      "પ્રેમ": 1221,
      "72": 1222,
      "તજ": 1223,
      "દને": 1224,
      "પડી": 1225,
      "મના": 1226,
      "સંઘ": 1227,
      "પાછા": 1228,
      "RHYME_2107": 1229,
      "લાગે": 1230,
      "બીજી": 1231,
      "ચરણ": 1232,
      "ગન્યા": 1233,
      "મુક્તાનંદ": 1234,
      "19": 1235,
      "43": 1236,
      "46": 1237,
      "58": 1238,
      "59": 1239,
      "આગન્યા": 1240,
      "ટું": 1241,
      "ધ્યે": 1242,
      "હૈયે": 1243,
      "જેઠો": 1244,
      "RHYME_2066": 1245,
      "ત્યાર": 1246,
      "આવ્યું": 1247,
      "લોભ": 1248,
      "શીશ": 1249,
      "ભગવન": 1250,
      "શિવ": 1251,
      "જુવે": 1252,
      "શુભ": 1253,
      "જમાડ્યા": 1254,
      "બુદ્ધિ": 1255,
      "ઉપા": 1256,
      "એટ": 1257,
      "ન્ય": 1258,
      "પહો": 1259,
      "લખી": 1260,
      "ૃત": 1261,
      "કર્": 1262,
      "કર્મ": 1263,
      "RHYME_20625": 1264,
      "RHYME_2082": 1265,
      "થાળ": 1266,
      "નાથને": 1267,
      "લીધા": 1268,
      "બેઉ": 1269,
      "સુખી": 1270,
      "વૃંદ": 1271,
      "ઇચ્છા": 1272,
      "વરતાલ": 1273,
      "સત્સંગી": 1274,
      "પૃથ": 1275,
      "પટેલ": 1276,
      "ંડા": 1277,
      "ઉદાર": 1278,
      "જ્યે": 1279,
      "તરી": 1280,
      "ભજી": 1281,
      "જીવો": 1282,
      "સુદિ": 1283,
      "તારે": 1284,
      "દીધી": 1285,
      "કીધી": 1286,
      "મોટો": 1287,
      "પ્રેમે": 1288,
      "83": 1289,
      "ંક": 1290,
      "અક્ષ": 1291,
      "ગઈ": 1292,
      "ચડી": 1293,
      "જર": 1294,
      "જૂ": 1295,
      "ડ્યો": 1296,
      "ડ્યે": 1297,
      "દામ": 1298,
      "વહે": 1299,
      "ૈય": 1300,
      "વાલે": 1301,
      "છીએ": 1302,
      "લાવી": 1303,
      "રહ્યું": 1304,
      "ચાલે": 1305,
      "સેવા": 1306,
      "સુખકારી": 1307,
      "પુત્ર": 1308,
      "દુષ્ટ": 1309,
      "મંદિર": 1310,
      "89": 1311,
      "92": 1312,
      "અખ": 1313,
      "આર": 1314,
      "દશી": 1315,
      "ભ્ર": 1316,
      "મણિ": 1317,
      "ળો": 1318,
      "સૌ": 1319,
      "્યાર": 1320,
      "વાને": 1321,
      "RHYME_20693": 1322,
      "કાજુ": 1323,
      "RHYME_2125": 1324,
      "RHYME_2127": 1325,
      "RHYME_2116": 1326,
      "સ્થા": 1327,
      "હાય": 1328,
      "નામી": 1329,
      "સારુ": 1330,
      "હીં": 1331,
      "જીવને": 1332,
      "કંઈ": 1333,
      "સામર્થ": 1334,
      "મંડળી": 1335,
      "ઇન્દ્ર": 1336,
      "ડ્ય": 1337,
      "ભાં": 1338,
      "રાખી": 1339,
      "મેશ": 1340,
      "ભાગી": 1341,
      "RHYME_2124": 1342,
      "RHYME_21241": 1343,
      "ત્રિ": 1344,
      "ગુલાલ": 1345,
      "ભેળા": 1346,
      "સમર્થ": 1347,
      "ચંદન": 1348,
      "પ્રસાદી": 1349,
      "00": 1350,
      "42": 1351,
      "55": 1352,
      "કન": 1353,
      "ઘણો": 1354,
      "મરા": 1355,
      "વશ": 1356,
      "કરજ્યો": 1357,
      "RHYME_20670": 1358,
      "જન્મ": 1359,
      "રાખે": 1360,
      "RHYME_20830": 1361,
      "RHYME_2094": 1362,
      "જોયું": 1363,
      "રીત્યે": 1364,
      "દીપ": 1365,
      "નયણે": 1366,
      "06": 1367,
      "10": 1368,
      "આશ્ર": 1369,
      "પગ": 1370,
      "ભવ": 1371,
      "લગી": 1372,
      "હં": 1373,
      "જાગ": 1374,
      "આવો": 1375,
      "મેઘ": 1376,
      "RHYME_21269": 1377,
      "RHYME_2056": 1378,
      "રહેજ્યો": 1379,
      "રંગે": 1380,
      "તતકાળ": 1381,
      "શરીર": 1382,
      "03": 1383,
      "એની": 1384,
      "ગાં": 1385,
      "ઝી": 1386,
      "હર્": 1387,
      "વાળા": 1388,
      "જેની": 1389,
      "માય": 1390,
      "RHYME_2099": 1391,
      "RHYME_20551": 1392,
      "બાપુ": 1393,
      "ત્રા": 1394,
      "દીઠી": 1395,
      "અતિશે": 1396,
      "પામ્યાં": 1397,
      "ષ્ટિ": 1398,
      "80": 1399,
      "કૂ": 1400,
      "કવિ": 1401,
      "ગં": 1402,
      "ગિર": 1403,
      "ઠાં": 1404,
      "દ્યા": 1405,
      "શૂ": 1406,
      "કરવું": 1407,
      "માગ": 1408,
      "પ્રતિ": 1409,
      "વેશ": 1410,
      "લાગી": 1411,
      "RHYME_2117": 1412,
      "દીઠું": 1413,
      "RHYME_21308": 1414,
      "નાથજી": 1415,
      "લીધું": 1416,
      "ભુવન": 1417,
      "પૂરી": 1418,
      "શ્ન": 1419,
      "મોટાં": 1420,
      "દયાળુ": 1421,
      "ચંદ્ર": 1422,
      "અધિ": 1423,
      "કલ": 1424,
      "નિય": 1425,
      "નદી": 1426,
      "પધરા": 1427,
      "વતી": 1428,
      "ષણ": 1429,
      "જેતલ": 1430,
      "માતા": 1431,
      "પ્રશ્ન": 1432,
      "વેષ": 1433,
      "નિત્યે": 1434,
      "RHYME_2053": 1435,
      "દીધું": 1436,
      "દ્‍": 1437,
      "પ્રભુને": 1438,
      "યોગ": 1439,
      "ધીરે": 1440,
      "પીડા": 1441,
      "ધાન": 1442,
      "શિષ્ય": 1443,
      "કંઠ": 1444,
      "કરાવ": 1445,
      "વૃદ્ધ": 1446,
      "પ્રીત્ય": 1447,
      "જમાડિયા": 1448,
      "લુવાર": 1449,
      "ચર્": 1450,
      "જરૂ": 1451,
      "ડુ": 1452,
      "તમારું": 1453,
      "થુ": 1454,
      "નમ": 1455,
      "ાંત": 1456,
      "ાંતિ": 1457,
      "વાલા": 1458,
      "પરસ્પર": 1459,
      "લેવા": 1460,
      "સર્વ": 1461,
      "ગામમાં": 1462,
      "રૂપા": 1463,
      "ઉદાસ": 1464,
      "ઊઠ": 1465,
      "એનો": 1466,
      "એનું": 1467,
      "કળી": 1468,
      "ગણે": 1469,
      "ધે": 1470,
      "ભિ": 1471,
      "રતન": 1472,
      "શર": 1473,
      "સારા": 1474,
      "સમાન": 1475,
      "માનો": 1476,
      "જાવું": 1477,
      "સંભા": 1478,
      "નિશ": 1479,
      "લાવે": 1480,
      "RHYME_2114": 1481,
      "વીતી": 1482,
      "શોક": 1483,
      "ભૂમિ": 1484,
      "મુનિજન": 1485,
      "દેશમાં": 1486,
      "ચ્છ": 1487,
      "વૈશ્ય": 1488,
      "સમાજ": 1489,
      "પ્રીત્યે": 1490,
      "બીજું": 1491,
      "ઉદ્ધવ": 1492,
      "શ્વેત": 1493,
      "અક્ષર": 1494,
      "જરૂર": 1495,
      "05": 1496,
      "ંથ": 1497,
      "અગ": 1498,
      "ઉચ્": 1499,
      "ખર": 1500,
      "જરા": 1501,
      "દં": 1502,
      "પળ": 1503,
      "મંત્ર": 1504,
      "રમે": 1505,
      "વખા": 1506,
      "સહાય": 1507,
      "હતો": 1508,
      "વાળી": 1509,
      "આવિયો": 1510,
      "RHYME_20890": 1511,
      "પાન": 1512,
      "કાજે": 1513,
      "કરીએ": 1514,
      "રીત": 1515,
      "બેચર": 1516,
      "બેસી": 1517,
      "પુરે": 1518,
      "જાણ્યા": 1519,
      "ગોપાળ": 1520,
      "પીતાં": 1521,
      "પામી": 1522,
      "તમારા": 1523,
      "પંચા": 1524,
      "ગ્રંથ": 1525,
      "ઉપદેશ": 1526,
      "પહેરી": 1527,
      "ઊતર્યા": 1528,
      "સામર્થિ": 1529,
      "49": 1530,
      "અત્ય": 1531,
      "એના": 1532,
      "ગટ": 1533,
      "દરે": 1534,
      "પંગ": 1535,
      "મહેર": 1536,
      "ળું": 1537,
      "શરણ": 1538,
      "હમેશ": 1539,
      "્વ": 1540,
      "વાણ": 1541,
      "વાની": 1542,
      "જેવું": 1543,
      "નાવે": 1544,
      "કહ્યા": 1545,
      "સંતો": 1546,
      "RHYME_21040": 1547,
      "પુણ્ય": 1548,
      "રૂડો": 1549,
      "મૂક": 1550,
      "તીર્થ": 1551,
      "RHYME_206378": 1552,
      "અવલ": 1553,
      "બ્રહ્મચારી": 1554,
      "સેવક": 1555,
      "એકાદશી": 1556,
      "દૈત્ય": 1557,
      "અત્યંત": 1558,
      "02": 1559,
      "14": 1560,
      "આસ": 1561,
      "એમાં": 1562,
      "જક્ત": 1563,
      "ભલે": 1564,
      "વહા": 1565,
      "સનેહ": 1566,
      "નાખ": 1567,
      "વિવે": 1568,
      "RHYME_20835": 1569,
      "RHYME_21153": 1570,
      "પૂજ": 1571,
      "રૂડા": 1572,
      "રામજી": 1573,
      "619": 1574,
      "ંડો": 1575,
      "સામું": 1576,
      "કુંડ": 1577,
      "આંહીં": 1578,
      "સ્વપ": 1579,
      "કાંઈક": 1580,
      "પ્રમાણો": 1581,
      "પુંજો": 1582,
      "આરતી": 1583,
      "04": 1584,
      "અહો": 1585,
      "કમળ": 1586,
      "ઢા": 1587,
      "તમારો": 1588,
      "દક્ષ": 1589,
      "પ્યા": 1590,
      "પળે": 1591,
      "લસી": 1592,
      "વાલ્ય": 1593,
      "કરશે": 1594,
      "માણ": 1595,
      "જાતિ": 1596,
      "રાખ્યા": 1597,
      "સંતે": 1598,
      "સાચા": 1599,
      "મુજ": 1600,
      "બીજો": 1601,
      "કૃપાળ": 1602,
      "સાંખ્ય": 1603,
      "જોઈને": 1604,
      "મારાં": 1605,
      "799": 1606,
      "RHYME_206879": 1607,
      "કારણ": 1608,
      "કંઠે": 1609,
      "કરાવે": 1610,
      "કરાવી": 1611,
      "વૃત્તિ": 1612,
      "તમારી": 1613,
      "સ્વરૂપ": 1614,
      "પાંચ": 1615,
      "ગંગા": 1616,
      "39": 1617,
      "56": 1618,
      "ંતા": 1619,
      "ઉમંગ": 1620,
      "પરા": 1621,
      "પડ્યા": 1622,
      "બ્": 1623,
      "મરે": 1624,
      "શય": 1625,
      "સવાર": 1626,
      "વાઘ": 1627,
      "વાલ": 1628,
      "વાડી": 1629,
      "કરતા": 1630,
      "જેવી": 1631,
      "માંહો": 1632,
      "જીભાઈ": 1633,
      "સંબં": 1634,
      "પાણી": 1635,
      "RHYME_2092": 1636,
      "દ્વાર": 1637,
      "RHYME_21330": 1638,
      "RHYME_21331": 1639,
      "કોય": 1640,
      "કેને": 1641,
      "બેર": 1642,
      "સુખદા": 1643,
      "ભૂષણ": 1644,
      "607": 1645,
      "અમર": 1646,
      "બાંધી": 1647,
      "સ્તુતિ": 1648,
      "પીતાંબર": 1649,
      "01": 1650,
      "82": 1651,
      "આણ": 1652,
      "આગળ": 1653,
      "છૂ": 1654,
      "જ્ય": 1655,
      "ઝે": 1656,
      "ટ્ય": 1657,
      "દંડ": 1658,
      "પહેર": 1659,
      "વને": 1660,
      "હામ": 1661,
      "ૈયો": 1662,
      "વામ": 1663,
      "નાશ": 1664,
      "માલ": 1665,
      "RHYME_2096": 1666,
      "RHYME_21026": 1667,
      "રહો": 1668,
      "ચારે": 1669,
      "બહુનામી": 1670,
      "દર્શને": 1671,
      "પણું": 1672,
      "ભાવસાર": 1673,
      "ઇચ્છ": 1674,
      "પડ્યો": 1675,
      "સૂર્ય": 1676,
      "73": 1677,
      "આદર": 1678,
      "આસન": 1679,
      "ઊભા": 1680,
      "કિયાં": 1681,
      "જણ": 1682,
      "તરે": 1683,
      "ધ્ર": 1684,
      "નવ્ય": 1685,
      "નંદે": 1686,
      "પ્ત": 1687,
      "મધ્યે": 1688,
      "શબ્": 1689,
      "સધા": 1690,
      "હસી": 1691,
      "માયા": 1692,
      "કહ્યાં": 1693,
      "વિન": 1694,
      "RHYME_20791": 1695,
      "RHYME_21341": 1696,
      "RHYME_21323": 1697,
      "કેટ": 1698,
      "સુખરૂપ": 1699,
      "પૂર્": 1700,
      "ધારણા": 1701,
      "પેર": 1702,
      "RHYME_206341": 1703,
      "ભગવંત": 1704,
      "અંતરમાં": 1705,
      "RHYME_206202": 1706,
      "બ્રહ્મા": 1707,
      "નિશ્ચ": 1708,
      "અખંડ": 1709,
      "હર્ષ": 1710,
      "12": 1711,
      "ઉતારી": 1712,
      "ખરા": 1713,
      "ચાં": 1714,
      "જાં": 1715,
      "નથુ": 1716,
      "ભજ્યા": 1717,
      "મવાર": 1718,
      "સરે": 1719,
      "હનુ": 1720,
      "ર્મ": 1721,
      "જેમાં": 1722,
      "RHYME_20608": 1723,
      "નાગ": 1724,
      "વેર": 1725,
      "વિધ": 1726,
      "વિમાન": 1727,
      "વિઘન": 1728,
      "હરિએ": 1729,
      "કાળે": 1730,
      "કાશી": 1731,
      "દાનંદ": 1732,
      "મુર": 1733,
      "હાલ": 1734,
      "સુખે": 1735,
      "મહામ": 1736,
      "ત્મ": 1737,
      "કીધો": 1738,
      "ધર્મે": 1739,
      "પામ્યો": 1740,
      "જગજીવન": 1741,
      "ઉત્તમ": 1742,
      "ક્યારેક": 1743,
      "મોરાર": 1744,
      "મોદક": 1745,
      "નિયમ": 1746,
      "13": 1747,
      "કંદ": 1748,
      "કષ્ટ": 1749,
      "ગતિ": 1750,
      "તૈયે": 1751,
      "થમ": 1752,
      "દય": 1753,
      "પન": 1754,
      "ભગો": 1755,
      "મજી": 1756,
      "લખા": 1757,
      "નાન": 1758,
      "જનનાં": 1759,
      "જાન": 1760,
      "જાવા": 1761,
      "RHYME_20761": 1762,
      "પાળે": 1763,
      "તાનંદ": 1764,
      "RHYME_20970": 1765,
      "હરિના": 1766,
      "દેખ": 1767,
      "ભાત્ય": 1768,
      "કાવે": 1769,
      "RHYME_21348": 1770,
      "કેદિ": 1771,
      "શીષ": 1772,
      "મૂકી": 1773,
      "વારમવાર": 1774,
      "સોને": 1775,
      "ગોલોક": 1776,
      "ળાનંદ": 1777,
      "શાળ": 1778,
      "શિર": 1779,
      "જુવો": 1780,
      "છોડ": 1781,
      "476": 1782,
      "RHYME_206578": 1783,
      "લાગ્યો": 1784,
      "જ્ઞા": 1785,
      "ભર્યા": 1786,
      "દીનદયાળ": 1787,
      "રમવા": 1788,
      "અર્થે": 1789,
      "ખુશાલ": 1790,
      "ગણેશ": 1791,
      "સંબંધી": 1792,
      "નિશ્ચય": 1793,
      "07": 1794,
      "અજ": 1795,
      "અણ": 1796,
      "અર": 1797,
      "આણી": 1798,
      "ઊં": 1799,
      "ગયું": 1800,
      "ઢો": 1801,
      "ધરે": 1802,
      "બન": 1803,
      "બિ": 1804,
      "ભણ": 1805,
      "મણ": 1806,
      "મત": 1807,
      "મણાં": 1808,
      "લગાર": 1809,
      "ળાં": 1810,
      "હતું": 1811,
      "નાડી": 1812,
      "જનની": 1813,
      "જાશે": 1814,
      "સંભારી": 1815,
      "નીલ": 1816,
      "RHYME_20538": 1817,
      "કહેવા": 1818,
      "સાચી": 1819,
      "પરિ": 1820,
      "આપ્યું": 1821,
      "લીધાં": 1822,
      "કેડ્યે": 1823,
      "પુષ્": 1824,
      "કીધું": 1825,
      "દુર્": 1826,
      "કુસંગી": 1827,
      "દ્રિ": 1828,
      "રણછોડ": 1829,
      "કુંભાર": 1830,
      "અમૃત": 1831,
      "બંધુ": 1832,
      "પહેરા": 1833,
      "મૂળજી": 1834,
      "RHYME_206261": 1835,
      "જેતલપુર": 1836,
      "વિનતિ": 1837,
      "ઉપાય": 1838,
      "એથી": 1839,
      "કળા": 1840,
      "તૈય": 1841,
      "યજ્ઞ": 1842,
      "વંદ": 1843,
      "વડે": 1844,
      "માળ": 1845,
      "વિષ્ણ": 1846,
      "વિદ્યા": 1847,
      "RHYME_20730": 1848,
      "પાક": 1849,
      "પાડી": 1850,
      "ભાટ": 1851,
      "ષ્ઠ": 1852,
      "આપ્યા": 1853,
      "કીધાં": 1854,
      "સ્વાદ": 1855,
      "ધર્મને": 1856,
      "કુબેર": 1857,
      "સ્વામીને": 1858,
      "દ્રષ્ટિ": 1859,
      "મુનિને": 1860,
      "907": 1861,
      "કુંવર": 1862,
      "પ્રભુજીને": 1863,
      "ઘોડે": 1864,
      "નીરખી": 1865,
      "ઘનશ્યામ": 1866,
      "RHYME_206502": 1867,
      "ફેર": 1868,
      "મનોહર": 1869,
      "પુષ્પ": 1870,
      "વિષ્ણુ": 1871,
      "અજાણ": 1872,
      "અયો": 1873,
      "ખૂ": 1874,
      "ખબર": 1875,
      "ઘણે": 1876,
      "ચળ": 1877,
      "મરણ": 1878,
      "લભ": 1879,
      "વધાર": 1880,
      "વિયો": 1881,
      "શર્": 1882,
      "સઘ": 1883,
      "્ઞ": 1884,
      "નેણ": 1885,
      "માગી": 1886,
      "માંથી": 1887,
      "કહ્યો": 1888,
      "વિક": 1889,
      "સંભાર": 1890,
      "સંશય": 1891,
      "દેશો": 1892,
      "લાસ": 1893,
      "િયાણી": 1894,
      "આપો": 1895,
      "સાંભરે": 1896,
      "માન્યું": 1897,
      "હીરો": 1898,
      "RHYME_206825": 1899,
      "આજ્ઞ": 1900,
      "વૃક્ષ": 1901,
      "પોતાના": 1902,
      "956": 1903,
      "લાગ્યાં": 1904,
      "વસતો": 1905,
      "અષ્ટમી": 1906,
      "RHYME_206458": 1907,
      "વિવેક": 1908,
      "સોનેરી": 1909,
      "36": 1910,
      "81": 1911,
      "અઢ": 1912,
      "કઠ": 1913,
      "કૌ": 1914,
      "ગૃ": 1915,
      "નવી": 1916,
      "પટ": 1917,
      "પદ": 1918,
      "બળે": 1919,
      "મું": 1920,
      "લિયો": 1921,
      "શશી": 1922,
      "હરે": 1923,
      "વાદ": 1924,
      "જેરામ": 1925,
      "નાવા": 1926,
      "માળી": 1927,
      "જનો": 1928,
      "જાશું": 1929,
      "સુણે": 1930,
      "આવું": 1931,
      "આવશે": 1932,
      "RHYME_20861": 1933,
      "તાપે": 1934,
      "RHYME_2102": 1935,
      "RHYME_20569": 1936,
      "ત્રિક": 1937,
      "RHYME_21335": 1938,
      "લોભે": 1939,
      "લેશ": 1940,
      "લેજ્યો": 1941,
      "ક્ષ્": 1942,
      "પોઢ": 1943,
      "સુંદરશ્યામ": 1944,
      "પીર": 1945,
      "ળાવ": 1946,
      "માર્યો": 1947,
      "આવીને": 1948,
      "કરાવ્યો": 1949,
      "પ્રાણઆધાર": 1950,
      "મુખથી": 1951,
      "તુલસી": 1952,
      "RHYME_206631": 1953,
      "પૂરણકામ": 1954,
      "બ્રહ્માંડ": 1955,
      "વરતાલે": 1956,
      "પ્રકાશ": 1957,
      "પહોં": 1958,
      "RHYME_206936": 1959,
      "કનક": 1960,
      "અહોનિશ": 1961,
      "સાંખ્યયોગી": 1962,
      "અયોધ્યા": 1963,
      "17": 1964,
      "અધર્મ": 1965,
      "ઊઠી": 1966,
      "ઓળ": 1967,
      "ખાં": 1968,
      "ઠ્ય": 1969,
      "ડ્યું": 1970,
      "તૃ": 1971,
      "તજે": 1972,
      "ન્યા": 1973,
      "ભૈ": 1974,
      "લક્ષ": 1975,
      "વસન": 1976,
      "હૃ": 1977,
      "હતી": 1978,
      "હમણાં": 1979,
      "વાજે": 1980,
      "ામી": 1981,
      "કરશો": 1982,
      "નાખે": 1983,
      "હરખ": 1984,
      "દેશે": 1985,
      "દેવો": 1986,
      "કાને": 1987,
      "જોબન": 1988,
      "હિંડો": 1989,
      "મોટે": 1990,
      "ચાલો": 1991,
      "શેષ": 1992,
      "ક્ષે": 1993,
      "પૂજ્યા": 1994,
      "રૂપે": 1995,
      "શાક": 1996,
      "તનમાં": 1997,
      "RHYME_206325": 1998,
      "શ્યામળ": 1999,
      "ચોર": 2000,
      "શિરો": 2001,
      "981": 2002,
      "ચાલ્યો": 2003,
      "બાળક": 2004,
      "332": 2005,
      "સિંહ": 2006,
      "પર્વત": 2007,
      "ક્યાંક": 2008,
      "પૂછ્યું": 2009,
      "નિષ્કુ": 2010,
      "દક્ષિ": 2011,
      "ભૈર": 2012,
      "11": 2013,
      "84": 2014,
      "85": 2015,
      "86": 2016,
      "ગર્": 2017,
      "ઘટે": 2018,
      "ભલી": 2019,
      "લ્": 2020,
      "લળી": 2021,
      "વડો": 2022,
      "શકે": 2023,
      "સનાથ": 2024,
      "સદ્‍": 2025,
      "વાસા": 2026,
      "જેનાં": 2027,
      "RHYME_20678": 2028,
      "માંસ": 2029,
      "પ્રથમ": 2030,
      "વિમુખ": 2031,
      "સંસાર": 2032,
      "તાળી": 2033,
      "નિધિ": 2034,
      "RHYME_20968": 2035,
      "લાવ": 2036,
      "કાઠી": 2037,
      "RHYME_2122": 2038,
      "વીત્યા": 2039,
      "સ્કાર": 2040,
      "સાવ": 2041,
      "રીતે": 2042,
      "ત્રિયા": 2043,
      "બેસે": 2044,
      "ક્ષુ": 2045,
      "પૂરો": 2046,
      "સ્વામિ": 2047,
      "ખેવ": 2048,
      "અન્ય": 2049,
      "શાપ": 2050,
      "પેર્ય": 2051,
      "જુગ": 2052,
      "તારું": 2053,
      "દુઃખી": 2054,
      "સામા": 2055,
      "પિપ": 2056,
      "પિંડ": 2057,
      "બંધ": 2058,
      "પર્ચો": 2059,
      "દીનબંધુ": 2060,
      "RHYME_206776": 2061,
      "RHYME_212626": 2062,
      "નિશ્ચે": 2063,
      "કૈંક": 2064,
      "RHYME_206515": 2065,
      "ઉપાસી": 2066,
      "માંહોમાંહિ": 2067,
      "મુરાર": 2068,
      "88": 2069,
      "ંજન": 2070,
      "આત": 2071,
      "આનંદે": 2072,
      "એવે": 2073,
      "ગમે": 2074,
      "ગરી": 2075,
      "છાં": 2076,
      "છબી": 2077,
      "ડભા": 2078,
      "ડ્યાં": 2079,
      "દૂર": 2080,
      "પશુ": 2081,
      "પ્યાર": 2082,
      "મહિ": 2083,
      "રજી": 2084,
      "રતિ": 2085,
      "હ્યા": 2086,
      "નેતિ": 2087,
      "જેના": 2088,
      "RHYME_20679": 2089,
      "જાઈ": 2090,
      "વિશ": 2091,
      "વિખ્યા": 2092,
      "સુધી": 2093,
      "રાનંદ": 2094,
      "ત્યો": 2095,
      "RHYME_20845": 2096,
      "RHYME_20848": 2097,
      "RHYME_20938": 2098,
      "RHYME_21020": 2099,
      "RHYME_21278": 2100,
      "દિવ્ય": 2101,
      "કહેજ્યો": 2102,
      "સ્નેહ": 2103,
      "સાય": 2104,
      "સાગર": 2105,
      "નોય": 2106,
      "થાઓ": 2107,
      "ત્યાંય": 2108,
      "રહેવું": 2109,
      "શોભ": 2110,
      "સોર": 2111,
      "સાંભળે": 2112,
      "દયાળે": 2113,
      "માનજ્યો": 2114,
      "સ્તવન": 2115,
      "સમજી": 2116,
      "ચિત": 2117,
      "દોષ": 2118,
      "પાસળે": 2119,
      "ક્રિયા": 2120,
      "સિંધુ": 2121,
      "અલબેલ": 2122,
      "બાંધ": 2123,
      "શંકર": 2124,
      "મનોરથ": 2125,
      "ઊઠ્યા": 2126,
      "સંભાળ": 2127,
      "કૃપાળુ": 2128,
      "હનુમાન": 2129,
      "સ્વામિનારાયણ": 2130,
      "18": 2131,
      "અકામ": 2132,
      "અમારે": 2133,
      "અસવાર": 2134,
      "કચ્છ": 2135,
      "ખું": 2136,
      "ખરી": 2137,
      "ગણી": 2138,
      "ગળે": 2139,
      "ઘુ": 2140,
      "જશ": 2141,
      "તારા": 2142,
      "દૂ": 2143,
      "ધ્વ": 2144,
      "બળી": 2145,
      "ભરે": 2146,
      "ભલા": 2147,
      "વણે": 2148,
      "વસ્તુ": 2149,
      "શામ": 2150,
      "શની": 2151,
      "શાંતિ": 2152,
      "ષા": 2153,
      "તેથી": 2154,
      "જેવો": 2155,
      "વેલ્ય": 2156,
      "વિશાળ": 2157,
      "સુદેવ": 2158,
      "રાજે": 2159,
      "રાધા": 2160,
      "RHYME_20720": 2161,
      "RHYME_20744": 2162,
      "હુતા": 2163,
      "RHYME_20826": 2164,
      "RHYME_20825": 2165,
      "નિઃ": 2166,
      "RHYME_20977": 2167,
      "RHYME_20991": 2168,
      "લાખો": 2169,
      "RHYME_21230": 2170,
      "RHYME_21270": 2171,
      "RHYME_21178": 2172,
      "RHYME_21138": 2173,
      "જોતાં": 2174,
      "RHYME_20550": 2175,
      "મોતી": 2176,
      "દિને": 2177,
      "સ્પર્": 2178,
      "મુગટ": 2179,
      "ત્રુ": 2180,
      "પરમા": 2181,
      "RHYME_21326": 2182,
      "ચાલી": 2183,
      "ક્ષમા": 2184,
      "કૃત": 2185,
      "સારાં": 2186,
      "શ્રીમહારાજ": 2187,
      "પામિયા": 2188,
      "ગાતાં": 2189,
      "સમૈયો": 2190,
      "615": 2191,
      "RHYME_206832": 2192,
      "કારિયાણી": 2193,
      "વર્તે": 2194,
      "RHYME_205878": 2195,
      "RHYME_205833": 2196,
      "જ્જ": 2197,
      "229": 2198,
      "આંઈ": 2199,
      "જગદી": 2200,
      "અંબ": 2201,
      "લખતાં": 2202,
      "ઘાટ": 2203,
      "RHYME_206209": 2204,
      "RHYME_206509": 2205,
      "ધૂપ": 2206,
      "નયણાં": 2207,
      "તજ્યું": 2208,
      "વિખ્યાત": 2209,
      "16": 2210,
      "ંધા": 2211,
      "ંટી": 2212,
      "ઇયો": 2213,
      "ઉદ્": 2214,
      "ઓપે": 2215,
      "ચ્યાર": 2216,
      "ડિયે": 2217,
      "દલ": 2218,
      "ધ્ય": 2219,
      "પત": 2220,
      "પંડ": 2221,
      "લજી": 2222,
      "શત્રુ": 2223,
      "સમી": 2224,
      "તેદિ": 2225,
      "વાવ": 2226,
      "વાનંદ": 2227,
      "વાજિ": 2228,
      "કરણ": 2229,
      "કરવી": 2230,
      "નાનંદ": 2231,
      "રાઘ": 2232,
      "RHYME_20779": 2233,
      "મેલ": 2234,
      "પાત": 2235,
      "RHYME_2106": 2236,
      "જોયા": 2237,
      "દાસે": 2238,
      "દીસે": 2239,
      "સંતદાસ": 2240,
      "સુખધામ": 2241,
      "નામું": 2242,
      "પૂછે": 2243,
      "રહેવા": 2244,
      "શ્રવણે": 2245,
      "મહારાજની": 2246,
      "શ્વાસ": 2247,
      "સમજે": 2248,
      "RHYME_206167": 2249,
      "ધર્યું": 2250,
      "તુર": 2251,
      "બોલ્યો": 2252,
      "વળતા": 2253,
      "નિર્મળ": 2254,
      "વિચાર્યું": 2255,
      "અલબેલે": 2256,
      "જામી": 2257,
      "ફર્યા": 2258,
      "હજારો": 2259,
      "ગિરિ": 2260,
      "પ્રતિપાળ": 2261,
      "શબ્દ": 2262,
      "નીલકંઠ": 2263,
      "આજ્ઞા": 2264,
      "15": 2265,
      "આવા": 2266,
      "એંધા": 2267,
      "જવા": 2268,
      "જતન": 2269,
      "ઠ્યે": 2270,
      "નૃ": 2271,
      "પત્ર": 2272,
      "ભણી": 2273,
      "રઈ": 2274,
      "લટ": 2275,
      "વ્યું": 2276,
      "વડા": 2277,
      "ષટ": 2278,
      "સઇ": 2279,
      "ૂપ": 2280,
      "્વી": 2281,
      "કરશું": 2282,
      "RHYME_20628": 2283,
      "નાહી": 2284,
      "જાળ": 2285,
      "રાક્ષ": 2286,
      "RHYME_20879": 2287,
      "RHYME_20928": 2288,
      "RHYME_20998": 2289,
      "RHYME_21070": 2290,
      "RHYME_205799": 2291,
      "સાળ": 2292,
      "બેસાર": 2293,
      "ખાચર": 2294,
      "રૂડાં": 2295,
      "નરનારાયણ": 2296,
      "સારંગ": 2297,
      "કુટું": 2298,
      "મારવા": 2299,
      "હોળી": 2300,
      "દ્રઢ": 2301,
      "690": 2302,
      "વૈકું": 2303,
      "ખોટ્ય": 2304,
      "942": 2305,
      "અમારી": 2306,
      "222": 2307,
      "પોતાની": 2308,
      "ચાલ્યાં": 2309,
      "752": 2310,
      "996": 2311,
      "658": 2312,
      "લુવા": 2313,
      "બંધા": 2314,
      "અવિનાશી": 2315,
      "અંતરજામી": 2316,
      "બાર્ય": 2317,
      "RHYME_206632": 2318,
      "ધીરજ્ય": 2319,
      "મોહન": 2320,
      "વિષય": 2321,
      "RHYME_206777": 2322,
      "પ્રસાદ": 2323,
      "તેડાવ્યા": 2324,
      "પૃથ્વી": 2325,
      "મરાળ": 2326,
      "પધરાવ્યા": 2327,
      "ઉચ્ચાર": 2328,
      "તૈયાર": 2329,
      "શર્મા": 2330,
      "હુતાશની": 2331,
      "ંસ": 2332,
      "અકળ": 2333,
      "અપરમ": 2334,
      "અભાગી": 2335,
      "ઉતાર": 2336,
      "કઈ": 2337,
      "કસું": 2338,
      "ગયાં": 2339,
      "દત્ત": 2340,
      "દિયો": 2341,
      "ભંગ": 2342,
      "ભવાની": 2343,
      "મણા": 2344,
      "રાં": 2345,
      "લક્ષ્": 2346,
      "વચ": 2347,
      "વડ": 2348,
      "વળા": 2349,
      "વહી": 2350,
      "હૂ": 2351,
      "માટ": 2352,
      "જનના": 2353,
      "જાપ": 2354,
      "જાગી": 2355,
      "વિસ્ત": 2356,
      "નીસર": 2357,
      "આવિયાં": 2358,
      "આવજ્યો": 2359,
      "આવશું": 2360,
      "પાડે": 2361,
      "તાન": 2362,
      "નિરા": 2363,
      "હરિદાસ": 2364,
      "દેવી": 2365,
      "લાધો": 2366,
      "ભાલ": 2367,
      "કાશ": 2368,
      "જોને": 2369,
      "દિક": 2370,
      "સહુએ": 2371,
      "પ્રભુનો": 2372,
      "બોલી": 2373,
      "ખાય": 2374,
      "રામદાસ": 2375,
      "શીત": 2376,
      "ગુણે": 2377,
      "ગોપી": 2378,
      "ખેલ": 2379,
      "કુસંગ": 2380,
      "મોટું": 2381,
      "દ્રષ્ણ": 2382,
      "ભૂલ": 2383,
      "RHYME_206894": 2384,
      "જીવરામ": 2385,
      "473": 2386,
      "જગત": 2387,
      "ક્યાંથી": 2388,
      "કેશર": 2389,
      "વિષે": 2390,
      "થોડે": 2391,
      "સોયામ": 2392,
      "વશરામ": 2393,
      "RHYME_205512": 2394,
      "અધિક": 2395,
      "પંગત્ય": 2396,
      "ઉમંગે": 2397,
      "RHYME_213311": 2398,
      "પરિવાર": 2399,
      "શ્યામળો": 2400,
      "નિષ્કુળાનંદ": 2401,
      "ભૈરવ": 2402,
      "સાવધાન": 2403,
      "સોરઠ": 2404,
      "જગદીશ": 2405,
      "વૈકુંઠ": 2406,
      "અપરમપાર": 2407,
      "અર્થ": 2408,
      "અમારું": 2409,
      "અશ્વ": 2410,
      "ઇયાં": 2411,
      "ઉત્": 2412,
      "કડાં": 2413,
      "ચક": 2414,
      "ઝૂ": 2415,
      "તજ્યો": 2416,
      "નખ": 2417,
      "નજ": 2418,
      "બહાર": 2419,
      "ળ્યા": 2420,
      "વદિ": 2421,
      "વસંત": 2422,
      "સરી": 2423,
      "હાં": 2424,
      "હતાં": 2425,
      "્નિ": 2426,
      "તેવા": 2427,
      "તેડ્યા": 2428,
      "વાટે": 2429,
      "RHYME_20621": 2430,
      "નાખી": 2431,
      "માહા": 2432,
      "જીએ": 2433,
      "જાદ": 2434,
      "રાઈ": 2435,
      "રાજો": 2436,
      "RHYME_20726": 2437,
      "RHYME_20748": 2438,
      "RHYME_20963": 2439,
      "હરિની": 2440,
      "RHYME_21268": 2441,
      "RHYME_20563": 2442,
      "RHYME_20577": 2443,
      "RHYME_20591": 2444,
      "RHYME_20598": 2445,
      "RHYME_205607": 2446,
      "વીશ": 2447,
      "મુકા": 2448,
      "દીધો": 2449,
      "દ્વી": 2450,
      "દ્વેષ": 2451,
      "RHYME_21340": 2452,
      "કોર": 2453,
      "આપણું": 2454,
      "લીં": 2455,
      "કેવા": 2456,
      "સંતની": 2457,
      "પ્રભુદાસ": 2458,
      "બોલાવ્યા": 2459,
      "કૃતાર": 2460,
      "ટેક": 2461,
      "વારિ": 2462,
      "ત્મા": 2463,
      "617": 2464,
      "412": 2465,
      "મુનિરાજ": 2466,
      "કાર્ત": 2467,
      "કાંય": 2468,
      "જમવા": 2469,
      "ખોડો": 2470,
      "જીવનાં": 2471,
      "સુરત": 2472,
      "089": 2473,
      "દેહનો": 2474,
      "પોતાનું": 2475,
      "જમાડે": 2476,
      "પ્રેમી": 2477,
      "373": 2478,
      "ભીર": 2479,
      "ગ્રહ": 2480,
      "અંબર": 2481,
      "નીરખ": 2482,
      "RHYME_212871": 2483,
      "ઝાલી": 2484,
      "ઉપર્યે": 2485,
      "અલૌકિ": 2486,
      "RHYME_206633": 2487,
      "સત્સંગ": 2488,
      "દેખાડે": 2489,
      "RHYME_211220": 2490,
      "તતખેવ": 2491,
      "RHYME_206682": 2492,
      "મૃત્ય": 2493,
      "શુભમતિ": 2494,
      "એટલું": 2495,
      "RHYME_208304": 2496,
      "શૂદ્ર": 2497,
      "નમસ્કાર": 2498,
      "શ્વેતદ્વી": 2499,
      "RHYME_208903": 2500,
      "કુંડળ": 2501,
      "કેટલા": 2502,
      "કુંવર્ય": 2503,
      "કઠણ": 2504,
      "શિરોમણિ": 2505,
      "મુરારિ": 2506,
      "ઉદ્ધાર": 2507,
      "અસુ": 2508,
      "આચાર": 2509,
      "ઈશ્વર": 2510,
      "ઉતા": 2511,
      "ઉગાર": 2512,
      "ઉતારે": 2513,
      "ગજ": 2514,
      "ઘી": 2515,
      "ચૂ": 2516,
      "ચ્યા": 2517,
      "ચડ્યા": 2518,
      "ઠાર": 2519,
      "પ્ય": 2520,
      "મદ્ય": 2521,
      "રજ": 2522,
      "રમા": 2523,
      "લૂ": 2524,
      "વારી": 2525,
      "વધા": 2526,
      "શિયા": 2527,
      "સહે": 2528,
      "ુબાઈ": 2529,
      "ાર્": 2530,
      "તેવું": 2531,
      "RHYME_20664": 2532,
      "માવજી": 2533,
      "પ્રત્ય": 2534,
      "જીત": 2535,
      "જીતી": 2536,
      "જાયે": 2537,
      "જાઉં": 2538,
      "રાત": 2539,
      "RHYME_20769": 2540,
      "RHYME_20771": 2541,
      "લાવો": 2542,
      "લાવ્યો": 2543,
      "ભાવિક": 2544,
      "RHYME_21250": 2545,
      "RHYME_21145": 2546,
      "કરીશ": 2547,
      "જોરે": 2548,
      "દાજી": 2549,
      "RHYME_20540": 2550,
      "તોરા": 2551,
      "વીરો": 2552,
      "સાત": 2553,
      "સાકર": 2554,
      "મુમુ": 2555,
      "બાજુ": 2556,
      "દીઠાં": 2557,
      "થાવા": 2558,
      "બીક": 2559,
      "લોકે": 2560,
      "ભુજ": 2561,
      "વનમાળી": 2562,
      "સુખિયા": 2563,
      "પૂરે": 2564,
      "સર્વેને": 2565,
      "પુનિ": 2566,
      "રામાન": 2567,
      "જાણજ્યો": 2568,
      "ગુજરા": 2569,
      "જોઈએ": 2570,
      "દુર": 2571,
      "કુશ": 2572,
      "શાનંદ": 2573,
      "કોઈક": 2574,
      "સ્તિ": 2575,
      "ભૂખ": 2576,
      "ચારણ": 2577,
      "વૈર": 2578,
      "પ્રકટ્યા": 2579,
      "676": 2580,
      "242": 2581,
      "મૂરખ": 2582,
      "પિચ": 2583,
      "તરત": 2584,
      "656": 2585,
      "અન્નકોટ": 2586,
      "નીર્ખ્યા": 2587,
      "શહેરમાં": 2588,
      "કેશવ": 2589,
      "થોડા": 2590,
      "RHYME_206686": 2591,
      "RHYME_206513": 2592,
      "ફાગણ": 2593,
      "પહોર": 2594,
      "વૃંદા": 2595,
      "આશ્રિત": 2596,
      "કરાવ્યાં": 2597,
      "સધાવ્યા": 2598,
      "RHYME_213233": 2599,
      "મહામતિ": 2600,
      "કૃતારથ": 2601,
      "કાર્તિક": 2602,
      "પ્રત્યક્ષ": 2603,
      "મુમુક્ષુ": 2604,
      "અમળ": 2605,
      "અભાવ": 2606,
      "અસત્ય": 2607,
      "આયુ": 2608,
      "કપિ": 2609,
      "કૈયે": 2610,
      "ગનાથ": 2611,
      "ચું": 2612,
      "જમુ": 2613,
      "જલે": 2614,
      "ટિ": 2615,
      "ઠકર": 2616,
      "તમારાં": 2617,
      "તળાવ": 2618,
      "દરી": 2619,
      "પદ્": 2620,
      "પત્તિ": 2621,
      "ભટ": 2622,
      "ભામ": 2623,
      "મર્મ": 2624,
      "વત્સ": 2625,
      "સજ્જ": 2626,
      "્પ": 2627,
      "્યપ": 2628,
      "્યાનંદ": 2629,
      "તેરે": 2630,
      "વાસુદેવ": 2631,
      "ામણ": 2632,
      "કર્ત": 2633,
      "કરવો": 2634,
      "જેઠી": 2635,
      "RHYME_20644": 2636,
      "RHYME_20660": 2637,
      "RHYME_20690": 2638,
      "પ્રભા": 2639,
      "પ્રવેશ": 2640,
      "જીત્યા": 2641,
      "વિસ્": 2642,
      "સુતા": 2643,
      "સંતાપ": 2644,
      "ક્તિ": 2645,
      "RHYME_20790": 2646,
      "RHYME_20863": 2647,
      "RHYME_20820": 2648,
      "RHYME_20891": 2649,
      "પાલ": 2650,
      "RHYME_20920": 2651,
      "RHYME_20925": 2652,
      "RHYME_21078": 2653,
      "RHYME_21077": 2654,
      "RHYME_21021": 2655,
      "RHYME_21090": 2656,
      "RHYME_21071": 2657,
      "લાજ": 2658,
      "લાડુ": 2659,
      "કાગળ": 2660,
      "RHYME_21223": 2661,
      "RHYME_21240": 2662,
      "RHYME_21123": 2663,
      "RHYME_21151": 2664,
      "હિત": 2665,
      "દાદો": 2666,
      "RHYME_20568": 2667,
      "RHYME_20593": 2668,
      "િયાણ": 2669,
      "કહેશે": 2670,
      "બાલ": 2671,
      "દીઠો": 2672,
      "પરમહ": 2673,
      "RHYME_21321": 2674,
      "નાથો": 2675,
      "બેઠી": 2676,
      "પુરી": 2677,
      "પુરાણ": 2678,
      "રામચંદ્ર": 2679,
      "શોધી": 2680,
      "મૂકે": 2681,
      "તીરથ": 2682,
      "બાઈને": 2683,
      "ગુલ": 2684,
      "નરક": 2685,
      "પીરસ": 2686,
      "કુળે": 2687,
      "મારગ": 2688,
      "માર્": 2689,
      "મળ્યું": 2690,
      "હ્‍": 2691,
      "RHYME_206337": 2692,
      "શિખ": 2693,
      "ત્યાનંદ": 2694,
      "સરિ": 2695,
      "દેશના": 2696,
      "છાપ": 2697,
      "RHYME_209160": 2698,
      "નિરમળ": 2699,
      "અમારા": 2700,
      "પ્રાણપતિ": 2701,
      "RHYME_206577": 2702,
      "992": 2703,
      "નીરખ્યા": 2704,
      "વ્રજ": 2705,
      "રાયજી": 2706,
      "રાખજ્યો": 2707,
      "રમ્યા": 2708,
      "742": 2709,
      "RHYME_206507": 2710,
      "ઊતરિયા": 2711,
      "RHYME_208991": 2712,
      "સુણતાં": 2713,
      "ચિંતવે": 2714,
      "RHYME_212413": 2715,
      "હંસ": 2716,
      "રૂપાળી": 2717,
      "ઉદાસી": 2718,
      "RHYME_211533": 2719,
      "સ્વપ્ન": 2720,
      "સુખદાય": 2721,
      "ધ્રો": 2722,
      "ગૃહી": 2723,
      "ત્રિકમ": 2724,
      "દક્ષિણા": 2725,
      "કુટુંબ": 2726,
      "લક્ષ્મી": 2727,
      "માહાત્મ": 2728,
      "શ્વેતદ્વીપ": 2729,
      "પરમહંસ": 2730,
      "અઘ": 2731,
      "ઈશ": 2732,
      "ઉમ": 2733,
      "ઊપ": 2734,
      "ઊતરી": 2735,
      "કડા": 2736,
      "ગરે": 2737,
      "ચૌ": 2738,
      "ચ્યો": 2739,
      "જગા": 2740,
      "ઝો": 2741,
      "દળ": 2742,
      "નૈ": 2743,
      "નગર": 2744,
      "પતી": 2745,
      "મલ": 2746,
      "રત્": 2747,
      "રખે": 2748,
      "લખો": 2749,
      "વારા": 2750,
      "શક": 2751,
      "શણ": 2752,
      "શિયો": 2753,
      "સઈ": 2754,
      "સણ": 2755,
      "ાત": 2756,
      "ાદિ": 2757,
      "વાતો": 2758,
      "વામી": 2759,
      "કરુ": 2760,
      "ર્ધ્વ": 2761,
      "RHYME_20623": 2762,
      "નાહ્યા": 2763,
      "જારે": 2764,
      "જાગે": 2765,
      "રાણી": 2766,
      "સંધ્યા": 2767,
      "સંન્યા": 2768,
      "હરજી": 2769,
      "મેઘો": 2770,
      "RHYME_20828": 2771,
      "RHYME_20838": 2772,
      "પાઘ": 2773,
      "પાઠ": 2774,
      "પાછો": 2775,
      "દેણ": 2776,
      "RHYME_21069": 2777,
      "RHYME_21051": 2778,
      "લાબ": 2779,
      "કાલ": 2780,
      "કાનંદ": 2781,
      "RHYME_21263": 2782,
      "RHYME_21144": 2783,
      "જોડ્યા": 2784,
      "હિં": 2785,
      "દાય": 2786,
      "દિવસે": 2787,
      "વીત": 2788,
      "મુવા": 2789,
      "પરબ્રહ્મ": 2790,
      "એકથી": 2791,
      "લોચન": 2792,
      "બેઠાં": 2793,
      "પૂછી": 2794,
      "પૂન્ય": 2795,
      "કૃષ્": 2796,
      "રહેનાર": 2797,
      "ખાઈ": 2798,
      "શ્રા": 2799,
      "શીદ": 2800,
      "ણાનંદ": 2801,
      "સોં": 2802,
      "ત્માનંદ": 2803,
      "કીધા": 2804,
      "મહારાજન": 2805,
      "નરનાર": 2806,
      "શ્રીજી": 2807,
      "ચરણે": 2808,
      "વરણી": 2809,
      "RHYME_206397": 2810,
      "હરિજનને": 2811,
      "વ્યાપ": 2812,
      "રણ્ય": 2813,
      "વૈષ્ણ": 2814,
      "534": 2815,
      "673": 2816,
      "આનંદમાં": 2817,
      "અમદા": 2818,
      "પ્રીતે": 2819,
      "સતસંગીને": 2820,
      "376": 2821,
      "લખવા": 2822,
      "નિર્ભય": 2823,
      "ઘાત": 2824,
      "સાધુને": 2825,
      "રાખ્યો": 2826,
      "સમાધિમાં": 2827,
      "મયારામ": 2828,
      "કાઢી": 2829,
      "શ્વરાનંદ": 2830,
      "જણાય": 2831,
      "તેડાવિયા": 2832,
      "એટલી": 2833,
      "આશ્રમ": 2834,
      "કૂપ": 2835,
      "અગ્નિ": 2836,
      "પૂજિયા": 2837,
      "અઢાર": 2838,
      "કસુંબી": 2839,
      "ઉમૈયા": 2840,
      "ંચી": 2841,
      "ઉગ": 2842,
      "કલો": 2843,
      "ખરો": 2844,
      "ગું": 2845,
      "ઘૃત": 2846,
      "ચડે": 2847,
      "ઠ્યા": 2848,
      "ડિયો": 2849,
      "ઢળી": 2850,
      "પિયા": 2851,
      "બની": 2852,
      "મતી": 2853,
      "મત્સ": 2854,
      "રિયા": 2855,
      "રઘુ": 2856,
      "રસાળ": 2857,
      "વખ": 2858,
      "વરા": 2859,
      "વડી": 2860,
      "વલ્": 2861,
      "સમુ": 2862,
      "સમૂ": 2863,
      "હસ": 2864,
      "િની": 2865,
      "તેવી": 2866,
      "વાહ": 2867,
      "જેનું": 2868,
      "નાના": 2869,
      "પ્રતાપે": 2870,
      "કહા": 2871,
      "જાતાં": 2872,
      "વિપર": 2873,
      "સુરા": 2874,
      "રાટ": 2875,
      "રાશિ": 2876,
      "RHYME_20763": 2877,
      "RHYME_20760": 2878,
      "તિલ": 2879,
      "RHYME_20844": 2880,
      "RHYME_20945": 2881,
      "RHYME_20969": 2882,
      "RHYME_20944": 2883,
      "RHYME_20960": 2884,
      "હરિભાઈ": 2885,
      "દેજ્યો": 2886,
      "RHYME_21063": 2887,
      "RHYME_21044": 2888,
      "RHYME_21060": 2889,
      "RHYME_21093": 2890,
      "ભાવી": 2891,
      "કાપી": 2892,
      "RHYME_21208": 2893,
      "RHYME_21275": 2894,
      "RHYME_21121": 2895,
      "જોજ્યો": 2896,
      "RHYME_20553": 2897,
      "મોત": 2898,
      "વીંટી": 2899,
      "સાજ": 2900,
      "સાચો": 2901,
      "બાપ": 2902,
      "ત્રો": 2903,
      "ત્રણ્ય": 2904,
      "દ્વા": 2905,
      "RHYME_21334": 2906,
      "કોમળ": 2907,
      "થાઉં": 2908,
      "આપવા": 2909,
      "હાસ": 2910,
      "બેઠો": 2911,
      "લેખે": 2912,
      "હેમ": 2913,
      "પ્રભુની": 2914,
      "ગુલાબ": 2915,
      "નરને": 2916,
      "ભેખ": 2917,
      "કૃષ્ણની": 2918,
      "સ્તિક": 2919,
      "ગાન": 2920,
      "ભગતિ": 2921,
      "થઈને": 2922,
      "દયાળજી": 2923,
      "ચિત્ર": 2924,
      "ચિંતા": 2925,
      "દેશથી": 2926,
      "કામી": 2927,
      "અવનિ": 2928,
      "272": 2929,
      "RHYME_205847": 2930,
      "672": 2931,
      "નારણ": 2932,
      "અંગમાં": 2933,
      "કાળો": 2934,
      "આંખ્ય": 2935,
      "પ્રાણજીવન": 2936,
      "લોકમાં": 2937,
      "જમાડી": 2938,
      "RHYME_213174": 2939,
      "વાયુ": 2940,
      "સુતને": 2941,
      "ભર્યાં": 2942,
      "નવમી": 2943,
      "RHYME_208368": 2944,
      "RHYME_206204": 2945,
      "RHYME_212923": 2946,
      "અનુપમ": 2947,
      "ગમતું": 2948,
      "RHYME_207720": 2949,
      "મોર્યે": 2950,
      "સાક્ષાત્": 2951,
      "માંડ્યું": 2952,
      "RHYME_206683": 2953,
      "RHYME_206255": 2954,
      "વહેલા": 2955,
      "ભાંગી": 2956,
      "ગંભીર": 2957,
      "માગું": 2958,
      "દંપતી": 2959,
      "વખાણ": 2960,
      "વહાલા": 2961,
      "પ્યાસ": 2962,
      "પહેર્યાં": 2963,
      "દયારામ": 2964,
      "RHYME_207616": 2965,
      "તૃપ્ત": 2966,
      "લક્ષમી": 2967,
      "ડભાણ": 2968,
      "પરમાણો": 2969,
      "નજરે": 2970,
      "રામાનુ": 2971,
      "પિચકારી": 2972,
      "વૃંદાવન": 2973,
      "જમુના": 2974,
      "વિસ્મય": 2975,
      "માહાત્મ્ય": 2976,
      "અહં": 2977,
      "અભિ": 2978,
      "ખંડ": 2979,
      "ગૌ": 2980,
      "ગિયા": 2981,
      "ઘરે": 2982,
      "ચ્યું": 2983,
      "ઝાં": 2984,
      "ટળે": 2985,
      "થિ": 2986,
      "થાર": 2987,
      "દશા": 2988,
      "દલુ": 2989,
      "નરે": 2990,
      "ભલો": 2991,
      "મટ": 2992,
      "મદ": 2993,
      "મહે": 2994,
      "રક્ષા": 2995,
      "રજની": 2996,
      "સતી": 2997,
      "હૈ": 2998,
      "હારી": 2999,
      "હૈયા": 3000,
      "હૈય": 3001,
      "તેજો": 3002,
      "વાદી": 3003,
      "વાજાં": 3004,
      "જેકાર": 3005,
      "RHYME_20661": 3006,
      "નાઇ": 3007,
      "માગે": 3008,
      "પ્રસિદ્ધ": 3009,
      "જીવી": 3010,
      "વેગ": 3011,
      "જનનો": 3012,
      "સુગં": 3013,
      "મેર્ય": 3014,
      "RHYME_20821": 3015,
      "RHYME_20860": 3016,
      "RHYME_20898": 3017,
      "તાણ": 3018,
      "પછીની": 3019,
      "RHYME_20926": 3020,
      "RHYME_20930": 3021,
      "દેતા": 3022,
      "RHYME_21030": 3023,
      "લાડ": 3024,
      "લાલો": 3025,
      "દિશે": 3026,
      "તોલ": 3027,
      "વીશે": 3028,
      "દીધા": 3029,
      "પરિયાણ": 3030,
      "એકે": 3031,
      "કેરી": 3032,
      "મીર": 3033,
      "મીઠી": 3034,
      "મનની": 3035,
      "લેશે": 3036,
      "ંગા": 3037,
      "પૂરા": 3038,
      "ખાન": 3039,
      "શ્રુ": 3040,
      "મહો": 3041,
      "તીર": 3042,
      "ગુજર": 3043,
      "પીવે": 3044,
      "ભેદ": 3045,
      "શ્રીરામ": 3046,
      "અનઘ": 3047,
      "મોટ્યપ": 3048,
      "કોઈને": 3049,
      "સ્વામીની": 3050,
      "પેંડા": 3051,
      "RHYME_206377": 3052,
      "RHYME_206379": 3053,
      "RHYME_206319": 3054,
      "ભૂલી": 3055,
      "મહારાજને": 3056,
      "ભગત": 3057,
      "કારણે": 3058,
      "ઘેરે": 3059,
      "સાંભળતાં": 3060,
      "ડોસો": 3061,
      "રૂપૈયા": 3062,
      "અંગો": 3063,
      "આંખ": 3064,
      "આંબા": 3065,
      "સ્વભાવ": 3066,
      "ચાલતાં": 3067,
      "RHYME_206063": 3068,
      "પુરમાં": 3069,
      "RHYME_207062": 3070,
      "RHYME_207054": 3071,
      "959": 3072,
      "જાણીને": 3073,
      "ધર્યો": 3074,
      "ગ્રામ": 3075,
      "ગ્રહી": 3076,
      "સખાને": 3077,
      "અંબા": 3078,
      "પડ્યું": 3079,
      "ઘરમાં": 3080,
      "ફૂલના": 3081,
      "ઉપર્ય": 3082,
      "રાખ્યું": 3083,
      "દેખીને": 3084,
      "ઋષિરાય": 3085,
      "સતસંગમાં": 3086,
      "RHYME_211291": 3087,
      "નિષ્પાપ": 3088,
      "કિં": 3089,
      "ઉરમાં": 3090,
      "વર્ણવી": 3091,
      "ત્રાસ": 3092,
      "અક્ષરધામ": 3093,
      "છૂટે": 3094,
      "કાશીદાસ": 3095,
      "ઢોલ": 3096,
      "અંબારામ": 3097,
      "એંધાણ": 3098,
      "રાક્ષસ": 3099,
      "મૃત્યુ": 3100,
      "પુનિત": 3101,
      "ગુજરાત": 3102,
      "સમૂહ": 3103,
      "હૈયામાં": 3104,
      "અનાથ": 3105,
      "અમૂ": 3106,
      "અચળ": 3107,
      "આસો": 3108,
      "ઉકો": 3109,
      "ઊડે": 3110,
      "એણે": 3111,
      "કમ": 3112,
      "કડી": 3113,
      "ખાર": 3114,
      "ગજી": 3115,
      "ઘટ": 3116,
      "ચૈ": 3117,
      "જં": 3118,
      "જયા": 3119,
      "જટા": 3120,
      "ટળ": 3121,
      "ડિ": 3122,
      "ડામાં": 3123,
      "ઢાં": 3124,
      "ઢું": 3125,
      "તરુ": 3126,
      "દલો": 3127,
      "દલે": 3128,
      "પમા": 3129,
      "પક્ષ": 3130,
      "બૂ": 3131,
      "ભણે": 3132,
      "રત": 3133,
      "રવિ": 3134,
      "લં": 3135,
      "વં": 3136,
      "વત્": 3137,
      "સગા": 3138,
      "સચ્": 3139,
      "સઘન": 3140,
      "હળ": 3141,
      "હમીર": 3142,
      "છેલ": 3143,
      "માંહી": 3144,
      "પ્રકાર": 3145,
      "જીજી": 3146,
      "વેણી": 3147,
      "જન્": 3148,
      "વિઘ": 3149,
      "વિશ્વાસ": 3150,
      "સંક્ષે": 3151,
      "RHYME_20753": 3152,
      "RHYME_20798": 3153,
      "RHYME_207476": 3154,
      "હરી": 3155,
      "મેલો": 3156,
      "RHYME_20841": 3157,
      "RHYME_20808": 3158,
      "પાટ": 3159,
      "પાણ": 3160,
      "તાતે": 3161,
      "RHYME_20951": 3162,
      "RHYME_20990": 3163,
      "RHYME_20931": 3164,
      "RHYME_209907": 3165,
      "RHYME_21031": 3166,
      "RHYME_21035": 3167,
      "RHYME_210332": 3168,
      "કાપ": 3169,
      "કાય": 3170,
      "RHYME_21277": 3171,
      "RHYME_21248": 3172,
      "RHYME_21231": 3173,
      "RHYME_21170": 3174,
      "જોવા": 3175,
      "RHYME_20561": 3176,
      "RHYME_20579": 3177,
      "RHYME_20590": 3178,
      "મોં": 3179,
      "સ્વર્": 3180,
      "સ્મરણ": 3181,
      "મુજને": 3182,
      "મુહૂ": 3183,
      "RHYME_21345": 3184,
      "RHYME_21338": 3185,
      "સહુની": 3186,
      "આપણા": 3187,
      "ચાય": 3188,
      "બેસ": 3189,
      "સેવે": 3190,
      "બોધ": 3191,
      "બોલાવી": 3192,
      "ધાર્યું": 3193,
      "રામો": 3194,
      "ંતર": 3195,
      "ત્રે": 3196,
      "કીર્તિ": 3197,
      "ભાઈને": 3198,
      "ધર્મન": 3199,
      "નરવીર": 3200,
      "પીધો": 3201,
      "રુવે": 3202,
      "રુધિ": 3203,
      "ત્તર": 3204,
      "કુર": 3205,
      "કુમતિ": 3206,
      "સ્વામીએ": 3207,
      "પેટ": 3208,
      "પામિયાં": 3209,
      "RHYME_206320": 3210,
      "RHYME_206347": 3211,
      "સમામાં": 3212,
      "શિષ": 3213,
      "માંહિથી": 3214,
      "ચિત્": 3215,
      "271": 3216,
      "275": 3217,
      "RHYME_205882": 3218,
      "472": 3219,
      "946": 3220,
      "કુંકુ": 3221,
      "નિજધામ": 3222,
      "આંહિ": 3223,
      "આંબો": 3224,
      "બીજાને": 3225,
      "વ્યંજન": 3226,
      "342": 3227,
      "ભીમ": 3228,
      "વળ્યા": 3229,
      "ટાળ": 3230,
      "સહજે": 3231,
      "નિર્ગુણ": 3232,
      "પડ્યાં": 3233,
      "ચેત": 3234,
      "296": 3235,
      "ક્યાંઈ": 3236,
      "RHYME_206207": 3237,
      "RHYME_213427": 3238,
      "RHYME_206461": 3239,
      "શંક": 3240,
      "શંખ": 3241,
      "જામો": 3242,
      "RHYME_206772": 3243,
      "સ્થિર": 3244,
      "પ્રકારે": 3245,
      "ગંગારામ": 3246,
      "RHYME_206259": 3247,
      "ઇચ્છાએ": 3248,
      "જાગ્યા": 3249,
      "RHYME_212698": 3250,
      "RHYME_213088": 3251,
      "શરણા": 3252,
      "મૂક્યા": 3253,
      "નાખ્યો": 3254,
      "RHYME_208356": 3255,
      "વાલ્યમ": 3256,
      "આણંદ": 3257,
      "ઇચ્છારામ": 3258,
      "પૂર્વ": 3259,
      "પેર્યે": 3260,
      "RHYME_206084": 3261,
      "જનોઈ": 3262,
      "RHYME_213356": 3263,
      "વાજિંત્ર": 3264,
      "હજારોહજાર": 3265,
      "RHYME_206285": 3266,
      "બેસાર્યા": 3267,
      "વચને": 3268,
      "અસુરે": 3269,
      "કરુણા": 3270,
      "સંન્યાસી": 3271,
      "ંડી": 3272,
      "અડ": 3273,
      "અધ્યા": 3274,
      "આભૂષણ": 3275,
      "ઇષ્ટ": 3276,
      "ઊર્ધ્વ": 3277,
      "એનાં": 3278,
      "કને": 3279,
      "કથી": 3280,
      "કળે": 3281,
      "કસી": 3282,
      "ગદ": 3283,
      "ગરો": 3284,
      "ગજરા": 3285,
      "ચરે": 3286,
      "ચતુ": 3287,
      "જળી": 3288,
      "ટ્યા": 3289,
      "ડરે": 3290,
      "દરા": 3291,
      "ધ્યો": 3292,
      "ધનો": 3293,
      "પલ": 3294,
      "પગે": 3295,
      "બડ": 3296,
      "બદ્રિ": 3297,
      "ભંડ": 3298,
      "મમાં": 3299,
      "મસ્ત": 3300,
      "મગા": 3301,
      "રું": 3302,
      "લખે": 3303,
      "વજ": 3304,
      "વજા": 3305,
      "વ્યાં": 3306,
      "શિયે": 3307,
      "સ્ર": 3308,
      "સભા": 3309,
      "સવારે": 3310,
      "હજારે": 3311,
      "િકા": 3312,
      "વાગ": 3313,
      "વામન": 3314,
      "વાતાં": 3315,
      "વાડે": 3316,
      "નાઈ": 3317,
      "નાયા": 3318,
      "નાનો": 3319,
      "માધ": 3320,
      "માવ": 3321,
      "પ્રાંત": 3322,
      "જીભે": 3323,
      "વેણ": 3324,
      "જાત": 3325,
      "વિર": 3326,
      "વિશ્વ": 3327,
      "રાસ": 3328,
      "રાજન": 3329,
      "સંતા": 3330,
      "RHYME_20728": 3331,
      "મેલે": 3332,
      "પાવ": 3333,
      "તાળ": 3334,
      "નિંદ": 3335,
      "નિસ્": 3336,
      "નિગમ": 3337,
      "હરિજને": 3338,
      "હરિરાય": 3339,
      "RHYME_21091": 3340,
      "લાય": 3341,
      "લાસે": 3342,
      "કાળી": 3343,
      "કાળા": 3344,
      "RHYME_21120": 3345,
      "RHYME_21198": 3346,
      "RHYME_211619": 3347,
      "વીતે": 3348,
      "બાળા": 3349,
      "બાઇયો": 3350,
      "શેખ": 3351,
      "એકાંતિ": 3352,
      "કેની": 3353,
      "હાડ": 3354,
      "લોભી": 3355,
      "વનાં": 3356,
      "પ્રભુના": 3357,
      "કૃત્યા": 3358,
      "રહેશે": 3359,
      "શ્રદ્ધ": 3360,
      "સોરંગ": 3361,
      "તેહને": 3362,
      "કીર્": 3363,
      "ગોળ": 3364,
      "નરોત્તમ": 3365,
      "ગેહ": 3366,
      "રુણ": 3367,
      "ત્ત્વ": 3368,
      "શ્રીભગવાન": 3369,
      "માર્યા": 3370,
      "સ્વામીનું": 3371,
      "મળવા": 3372,
      "મળ્યે": 3373,
      "હીર": 3374,
      "વરષ": 3375,
      "ભૂંડ": 3376,
      "ભૂંડા": 3377,
      "તારો": 3378,
      "RHYME_206150": 3379,
      "ચિદાનંદ": 3380,
      "જીવણ": 3381,
      "ખોટી": 3382,
      "ઘેલો": 3383,
      "જીવનપ્રાણ": 3384,
      "ડોશી": 3385,
      "246": 3386,
      "RHYME_207841": 3387,
      "RHYME_207800": 3388,
      "દેહને": 3389,
      "ચંદને": 3390,
      "ધ્યાને": 3391,
      "પંખી": 3392,
      "RHYME_206594": 3393,
      "RHYME_213187": 3394,
      "655": 3395,
      "રહીએ": 3396,
      "ટાળી": 3397,
      "ઘોર": 3398,
      "ભર્યો": 3399,
      "અનુરા": 3400,
      "પર્ચા": 3401,
      "ગુરુએ": 3402,
      "સદાય": 3403,
      "મંડળ": 3404,
      "દેખાડી": 3405,
      "ખુમારી": 3406,
      "ધૂન્ય": 3407,
      "પૂર્યા": 3408,
      "પૂર્યો": 3409,
      "RHYME_208667": 3410,
      "મંગળ": 3411,
      "સ્થિ": 3412,
      "શરીરે": 3413,
      "ડુંગર": 3414,
      "પ્રેમવતી": 3415,
      "મનાય": 3416,
      "પ્રેમેશું": 3417,
      "દામો": 3418,
      "ભ્રાત": 3419,
      "RHYME_206700": 3420,
      "ભવપાર": 3421,
      "શરીરમાં": 3422,
      "ગિરધર": 3423,
      "ભૂમિએ": 3424,
      "અગત્રા": 3425,
      "આસને": 3426,
      "આગળ્ય": 3427,
      "જ્ઞાની": 3428,
      "RHYME_207300": 3429,
      "વધાર્યા": 3430,
      "હિંડોળે": 3431,
      "છબીલો": 3432,
      "RHYME_206790": 3433,
      "નિઃશંક": 3434,
      "સમીપે": 3435,
      "કુશળ": 3436,
      "આયુધ": 3437,
      "હિંસા": 3438,
      "વિઘ્ન": 3439,
      "સ્વર્ગ": 3440,
      "મુહૂર્ત": 3441,
      "કૃત્યાઓ": 3442,
      "અના": 3443,
      "અજુ": 3444,
      "અદેવ": 3445,
      "અભય": 3446,
      "અપરા": 3447,
      "અકળા": 3448,
      "અતોલ": 3449,
      "આઠ": 3450,
      "આસુ": 3451,
      "આંગ": 3452,
      "આહાર": 3453,
      "આકાશ": 3454,
      "ઉજા": 3455,
      "ઉષ્ણ": 3456,
      "ઋતુ": 3457,
      "કસ": 3458,
      "ચં": 3459,
      "છિયા": 3460,
      "છારામ": 3461,
      "છઉં": 3462,
      "જડ": 3463,
      "ટળી": 3464,
      "ટલી": 3465,
      "તણે": 3466,
      "તળે": 3467,
      "તપે": 3468,
      "તજાય": 3469,
      "ધને": 3470,
      "નક": 3471,
      "પરે": 3472,
      "પતા": 3473,
      "પટી": 3474,
      "ફો": 3475,
      "મૌ": 3476,
      "રખ": 3477,
      "વળે": 3478,
      "હણ": 3479,
      "િવી": 3480,
      "વાડ": 3481,
      "કર્ય": 3482,
      "RHYME_20641": 3483,
      "RHYME_20640": 3484,
      "RHYME_20698": 3485,
      "નાની": 3486,
      "નાગર": 3487,
      "માગો": 3488,
      "પ્રગટ": 3489,
      "વેઢ": 3490,
      "વેલ": 3491,
      "વિધ્યે": 3492,
      "રાખો": 3493,
      "સંપ્ર": 3494,
      "સંકટ": 3495,
      "સંહાર": 3496,
      "RHYME_20778": 3497,
      "RHYME_20750": 3498,
      "RHYME_20768": 3499,
      "RHYME_20740": 3500,
      "RHYME_20793": 3501,
      "RHYME_20738": 3502,
      "RHYME_20868": 3503,
      "RHYME_20869": 3504,
      "પાછું": 3505,
      "પાણિ": 3506,
      "તાને": 3507,
      "તાવી": 3508,
      "તાપી": 3509,
      "RHYME_20979": 3510,
      "RHYME_20953": 3511,
      "RHYME_20993": 3512,
      "RHYME_20908": 3513,
      "RHYME_20935": 3514,
      "RHYME_20971": 3515,
      "RHYME_209617": 3516,
      "RHYME_21041": 3517,
      "RHYME_21045": 3518,
      "RHYME_21008": 3519,
      "લાખ": 3520,
      "ભાળી": 3521,
      "ંદુ": 3522,
      "કાનો": 3523,
      "RHYME_21251": 3524,
      "RHYME_21293": 3525,
      "RHYME_21290": 3526,
      "RHYME_21271": 3527,
      "RHYME_21150": 3528,
      "RHYME_21141": 3529,
      "RHYME_21125": 3530,
      "RHYME_21169": 3531,
      "RHYME_21128": 3532,
      "RHYME_21171": 3533,
      "જોય": 3534,
      "જોર": 3535,
      "જોયાં": 3536,
      "દાઝ": 3537,
      "RHYME_20544": 3538,
      "RHYME_20571": 3539,
      "દિના": 3540,
      "દિવાળી": 3541,
      "િયાણે": 3542,
      "RHYME_21344": 3543,
      "RHYME_213476": 3544,
      "કોરે": 3545,
      "થાપ": 3546,
      "બીર": 3547,
      "આવ્યાતા": 3548,
      "ક્કાર": 3549,
      "વનમાં": 3550,
      "ગીતા": 3551,
      "ગામો": 3552,
      "સુખકંદ": 3553,
      "સુખદેણ": 3554,
      "પૂજે": 3555,
      "પૂજન": 3556,
      "રહેતાં": 3557,
      "રૂપાળ": 3558,
      "ણાવ": 3559,
      "તીત": 3560,
      "તીરે": 3561,
      "સોમ": 3562,
      "ખીમો": 3563,
      "ભાઈજી": 3564,
      "ગોમતી": 3565,
      "રુદન": 3566,
      "ભેળી": 3567,
      "સ્વામીના": 3568,
      "મળશે": 3569,
      "હીરા": 3570,
      "દ્રા": 3571,
      "દ્રો": 3572,
      "RHYME_206374": 3573,
      "ભૂધર": 3574,
      "ધર્મદેવ": 3575,
      "સમજ": 3576,
      "સમજા": 3577,
      "RHYME_206827": 3578,
      "ધિક્કાર": 3579,
      "ચોમા": 3580,
      "કાંયે": 3581,
      "વ્યાકુળ": 3582,
      "જમિયા": 3583,
      "જમતાં": 3584,
      "RHYME_206157": 3585,
      "પ્રાકૃત": 3586,
      "વૈરી": 3587,
      "RHYME_209140": 3588,
      "RHYME_209166": 3589,
      "RHYME_209109": 3590,
      "RHYME_205841": 3591,
      "RHYME_205810": 3592,
      "474": 3593,
      "શુક": 3594,
      "RHYME_207861": 3595,
      "આંબ": 3596,
      "RHYME_210841": 3597,
      "RHYME_210833": 3598,
      "RHYME_208025": 3599,
      "સ્વધર્મ": 3600,
      "RHYME_210123": 3601,
      "RHYME_207060": 3602,
      "ઉત્સવનો": 3603,
      "955": 3604,
      "957": 3605,
      "બ્રહ્મચર્ય": 3606,
      "પ્રભુજીની": 3607,
      "757": 3608,
      "તર્યા": 3609,
      "RHYME_213177": 3610,
      "999": 3611,
      "ફૂલી": 3612,
      "વળતાં": 3613,
      "લખ્યો": 3614,
      "લખ્યું": 3615,
      "લખમણ": 3616,
      "સત્યવાદી": 3617,
      "સહજ": 3618,
      "972": 3619,
      "ગઢડા": 3620,
      "ઝાડ": 3621,
      "રમતાં": 3622,
      "સમેત": 3623,
      "બાંય": 3624,
      "બાંધ્યા": 3625,
      "તપસ્": 3626,
      "RHYME_206944": 3627,
      "સદાવ્રત": 3628,
      "RHYME_212922": 3629,
      "RHYME_205963": 3630,
      "દિવસની": 3631,
      "RHYME_206737": 3632,
      "ઊતરવા": 3633,
      "RHYME_208450": 3634,
      "વ્રતમાન": 3635,
      "કાનજી": 3636,
      "વિધિએ": 3637,
      "ભાગ્યા": 3638,
      "RHYME_205745": 3639,
      "RHYME_206457": 3640,
      "પૃથવી": 3641,
      "પૃથિવી": 3642,
      "મરાલ": 3643,
      "RHYME_206702": 3644,
      "RHYME_212691": 3645,
      "RHYME_205516": 3646,
      "બાપુજી": 3647,
      "બાપુભાઈ": 3648,
      "પંચાળે": 3649,
      "પંગતિ": 3650,
      "ઝેર": 3651,
      "RHYME_210268": 3652,
      "RHYME_207915": 3653,
      "RHYME_213412": 3654,
      "જાનકી": 3655,
      "RHYME_213481": 3656,
      "RHYME_213482": 3657,
      "દુર્વાસા": 3658,
      "RHYME_205695": 3659,
      "પીરસે": 3660,
      "ઓળખા": 3661,
      "હિંડોળો": 3662,
      "દૂધ": 3663,
      "રાઘવ": 3664,
      "RHYME_210708": 3665,
      "પંગત્યમાં": 3666,
      "શણગાર": 3667,
      "અમદાવાદ": 3668,
      "મત્સ્ય": 3669,
      "સમુદ્ર": 3670,
      "સંક્ષેપે": 3671,
      "ચિત્તે": 3672,
      "ભંડાર": 3673,
      "એકાંતિક": 3674,
      "અપ": 3675,
      "અજો": 3676,
      "અગા": 3677,
      "અમારો": 3678,
      "આદ": 3679,
      "આળ": 3680,
      "આને": 3681,
      "આત્મ": 3682,
      "આત્મા": 3683,
      "ઉઠા": 3684,
      "ઉછા": 3685,
      "ઊતરે": 3686,
      "ઐશ્વર": 3687,
      "ખામી": 3688,
      "ગત": 3689,
      "ગળી": 3690,
      "ગણો": 3691,
      "ચમર": 3692,
      "જમને": 3693,
      "ઝવેર": 3694,
      "ઢે": 3695,
      "ઢળ્યા": 3696,
      "ણજી": 3697,
      "ણામાં": 3698,
      "તામ": 3699,
      "દંત": 3700,
      "નવા": 3701,
      "પથ": 3702,
      "પણે": 3703,
      "પવન": 3704,
      "મામ": 3705,
      "મત્": 3706,
      "મધુ": 3707,
      "રિ": 3708,
      "વતાં": 3709,
      "વધારી": 3710,
      "શાર": 3711,
      "શૂર": 3712,
      "સલ": 3713,
      "સરા": 3714,
      "સમોહ": 3715,
      "ાંગ": 3716,
      "જેનો": 3717,
      "જેસંગ": 3718,
      "જેવાં": 3719,
      "RHYME_20669": 3720,
      "RHYME_20648": 3721,
      "પ્રજા": 3722,
      "પ્રવર્": 3723,
      "કહિ": 3724,
      "વેલી": 3725,
      "જનમ": 3726,
      "જનગર": 3727,
      "જાતા": 3728,
      "વિઠ": 3729,
      "વિકટ": 3730,
      "સુધીર": 3731,
      "રાવી": 3732,
      "RHYME_207956": 3733,
      "હરખી": 3734,
      "મેદ": 3735,
      "RHYME_20864": 3736,
      "પાલખી": 3737,
      "તાણી": 3738,
      "નિહાલ": 3739,
      "હરિગુણ": 3740,
      "દેઈ": 3741,
      "લાવિયા": 3742,
      "ભાન": 3743,
      "ભાવ્યા": 3744,
      "કારે": 3745,
      "RHYME_21245": 3746,
      "RHYME_21131": 3747,
      "મોક્ષ": 3748,
      "દિશ": 3749,
      "વીત્યો": 3750,
      "સ્નાન": 3751,
      "મુવો": 3752,
      "પર્ય": 3753,
      "ચાળ": 3754,
      "કેણે": 3755,
      "કેસર": 3756,
      "લોજ": 3757,
      "મીઠું": 3758,
      "ભુજનગર": 3759,
      "બહુને": 3760,
      "બેડી": 3761,
      "બેસારી": 3762,
      "ત્યાંઇ": 3763,
      "પોશા": 3764,
      "સુખરાશિ": 3765,
      "વાતની": 3766,
      "ખાવા": 3767,
      "શ્રવણ": 3768,
      "શીલ": 3769,
      "રુગનાથ": 3770,
      "ત્ત્": 3771,
      "શાખ": 3772,
      "સ્વામીશ્રીજી": 3773,
      "મળ્યો": 3774,
      "મળ્યાં": 3775,
      "પેખી": 3776,
      "દ્રગ": 3777,
      "ગાડ": 3778,
      "ભૂપાળ": 3779,
      "ભૂખ્યા": 3780,
      "સમર": 3781,
      "સમજ્યા": 3782,
      "હરિજનનાં": 3783,
      "શ્યામે": 3784,
      "ધારે": 3785,
      "ચોક": 3786,
      "ચોરી": 3787,
      "શિખા": 3788,
      "કાંટા": 3789,
      "અવશ્ય": 3790,
      "વૈશાખ": 3791,
      "276": 3792,
      "ખોટા": 3793,
      "RHYME_209162": 3794,
      "સનમાન": 3795,
      "471": 3796,
      "સાંભળશે": 3797,
      "શુરામ": 3798,
      "243": 3799,
      "પ્રીતિ": 3800,
      "RHYME_206064": 3801,
      "કરવાને": 3802,
      "RHYME_206592": 3803,
      "પતિવ્ર": 3804,
      "RHYME_208128": 3805,
      "વળતે": 3806,
      "ગુણવાન": 3807,
      "ગ્રી": 3808,
      "લખું": 3809,
      "શ્રીકૃષ્ણની": 3810,
      "ઉપવાસ": 3811,
      "વિચારિયું": 3812,
      "ભરીને": 3813,
      "રસિયો": 3814,
      "RHYME_212048": 3815,
      "પંચમી": 3816,
      "યોગીને": 3817,
      "શીખવે": 3818,
      "ફેં": 3819,
      "દશમી": 3820,
      "ભાગવત": 3821,
      "મૃગ": 3822,
      "મૃતિ": 3823,
      "યુક્ત": 3824,
      "એકાએક": 3825,
      "રામાનંદજી": 3826,
      "જ્યેષ્ઠ": 3827,
      "ભ્રકુ": 3828,
      "જેતલપુરે": 3829,
      "વહાલું": 3830,
      "વાઘરી": 3831,
      "સુખદાઈ": 3832,
      "શબ્દે": 3833,
      "લખાય": 3834,
      "RHYME_205388": 3835,
      "ખૂબ": 3836,
      "અઢળ": 3837,
      "અયોધ્યાવાસી": 3838,
      "વડોદરે": 3839,
      "પિપલા": 3840,
      "મહિમા": 3841,
      "ભલાઈ": 3842,
      "સ્પર્શી": 3843,
      "પંડિત": 3844,
      "વાવરે": 3845,
      "સારંગપુર": 3846,
      "વિસ્તારી": 3847,
      "ચકિત": 3848,
      "જાદવજી": 3849,
      "નીરખવા": 3850,
      "મુમુક્ષુને": 3851,
      "RHYME_212639": 3852,
      "પૂન્યમ": 3853,
      "વ્યાપકાનંદ": 3854,
      "વલ્લભ": 3855,
      "થારથ": 3856,
      "સુગંધી": 3857,
      "ખારું": 3858,
      "સચ્ચિદાનંદ": 3859,
      "રુધિર": 3860,
      "કુંકુમ": 3861,
      "નિંદા": 3862,
      "સંપ્રદાય": 3863,
      "દ્રોહ": 3864,
      "તપસ્વી": 3865,
      "પોશાગ": 3866,
      "અટ": 3867,
      "અબ": 3868,
      "અનિ": 3869,
      "અચિ": 3870,
      "અશ્વે": 3871,
      "અમારાં": 3872,
      "આલ": 3873,
      "આશા": 3874,
      "આગળે": 3875,
      "આશિષ": 3876,
      "આહીર": 3877,
      "ઉત": 3878,
      "ઉઘા": 3879,
      "ઊગર": 3880,
      "ખડ": 3881,
      "ગિ": 3882,
      "ચડો": 3883,
      "ચડ્યો": 3884,
      "જપ": 3885,
      "જંત": 3886,
      "ઝુ": 3887,
      "ઝડી": 3888,
      "ટ્યો": 3889,
      "ડર": 3890,
      "નઈ": 3891,
      "નટ": 3892,
      "નજી": 3893,
      "નંગ": 3894,
      "ન્ન": 3895,
      "પત્": 3896,
      "પશ્": 3897,
      "ફાં": 3898,
      "ફળી": 3899,
      "ફરો": 3900,
      "બસ": 3901,
      "ભજ": 3902,
      "મરી": 3903,
      "મંત": 3904,
      "યશ": 3905,
      "રં": 3906,
      "લછ": 3907,
      "લખ્યા": 3908,
      "લૈયે": 3909,
      "વસુ": 3910,
      "વિયાં": 3911,
      "વજ્યો": 3912,
      "શક્તિ": 3913,
      "સપ્ત": 3914,
      "િદાસ": 3915,
      "ોભ": 3916,
      "વાસે": 3917,
      "વાઘો": 3918,
      "જેથી": 3919,
      "RHYME_206942": 3920,
      "નાય": 3921,
      "નાસ્તિક": 3922,
      "માથ": 3923,
      "માવો": 3924,
      "માધો": 3925,
      "માણ્ય": 3926,
      "માંગરો": 3927,
      "પ્રસંગ": 3928,
      "પ્રબોધ": 3929,
      "જનમન": 3930,
      "વિશ્ર": 3931,
      "વિસાર": 3932,
      "વિવિધ": 3933,
      "સંદેહ": 3934,
      "સંઘા": 3935,
      "સંવત્": 3936,
      "RHYME_20770": 3937,
      "RHYME_20735": 3938,
      "RHYME_207089": 3939,
      "હુલાસ": 3940,
      "મેરાણ": 3941,
      "RHYME_20870": 3942,
      "RHYME_20893": 3943,
      "પાપે": 3944,
      "પાયે": 3945,
      "તાણ્ય": 3946,
      "નિવાર": 3947,
      "RHYME_20948": 3948,
      "RHYME_20921": 3949,
      "હરિનો": 3950,
      "હરિનું": 3951,
      "હરિચરિત્ર": 3952,
      "હરિપ્રસાદ": 3953,
      "દેતાં": 3954,
      "RHYME_21050": 3955,
      "RHYME_21028": 3956,
      "RHYME_21053": 3957,
      "RHYME_21038": 3958,
      "RHYME_210615": 3959,
      "ભાનંદ": 3960,
      "ભાણો": 3961,
      "રહું": 3962,
      "RHYME_21225": 3963,
      "RHYME_21235": 3964,
      "RHYME_212222": 3965,
      "RHYME_21163": 3966,
      "RHYME_21168": 3967,
      "RHYME_21140": 3968,
      "જોડ": 3969,
      "જોડે": 3970,
      "RHYME_20570": 3971,
      "RHYME_205752": 3972,
      "કહેજ્યે": 3973,
      "સાઈ": 3974,
      "સાદ": 3975,
      "રીષ": 3976,
      "દીક્ષા": 3977,
      "ષ્ટે": 3978,
      "પરસન": 3979,
      "પરમાણ": 3980,
      "RHYME_21320": 3981,
      "RHYME_21328": 3982,
      "RHYME_21351": 3983,
      "RHYME_213229": 3984,
      "સહુના": 3985,
      "થાકે": 3986,
      "ચાટ": 3987,
      "કેફ": 3988,
      "કેવળ": 3989,
      "હારે": 3990,
      "લોલ": 3991,
      "મીઠો": 3992,
      "મનન": 3993,
      "મનછારામ": 3994,
      "લેખ": 3995,
      "દરશને": 3996,
      "પ્રભુનું": 3997,
      "બોલાવે": 3998,
      "વાતમાં": 3999,
      "રહેશું": 4000,
      "રૂપો": 4001,
      "રામાં": 4002,
      "રામબાઈ": 4003,
      "રામનવમી": 4004,
      "મહી": 4005,
      "જાણ્ય": 4006,
      "ધનજી": 4007,
      "કીરતન": 4008,
      "પાર્": 4009,
      "પીન": 4010,
      "ળાવે": 4011,
      "કુલ": 4012,
      "કુરજી": 4013,
      "અનૂપ": 4014,
      "ચરો": 4015,
      "ઠાકુર": 4016,
      "મળિયા": 4017,
      "વરત": 4018,
      "પામશે": 4019,
      "ગાથ": 4020,
      "ભૂલ્યા": 4021,
      "RHYME_206838": 4022,
      "ચોરા": 4023,
      "જુજ": 4024,
      "જુજવા": 4025,
      "RHYME_206137": 4026,
      "RHYME_206162": 4027,
      "કામે": 4028,
      "દેવશી": 4029,
      "અવળું": 4030,
      "છાઈ": 4031,
      "ઘેરી": 4032,
      "જાયગા": 4033,
      "ધોલે": 4034,
      "ધોરાજી": 4035,
      "475": 4036,
      "લઈને": 4037,
      "સામી": 4038,
      "સામાં": 4039,
      "949": 4040,
      "નિરસ્નેહ": 4041,
      "ભગવાનદાસ": 4042,
      "સમાચાર": 4043,
      "ભોજો": 4044,
      "રાજ્ય": 4045,
      "રાજબાઈ": 4046,
      "RHYME_208026": 4047,
      "RHYME_210109": 4048,
      "RHYME_206094": 4049,
      "લાલદાસ": 4050,
      "બ્રહ્મચાર": 4051,
      "વાંક": 4052,
      "પ્રેત": 4053,
      "RHYME_206528": 4054,
      "RHYME_206583": 4055,
      "RHYME_213179": 4056,
      "997": 4057,
      "લાગિયા": 4058,
      "RHYME_207152": 4059,
      "RHYME_207186": 4060,
      "654": 4061,
      "બુધ": 4062,
      "બુરા": 4063,
      "RHYME_209885": 4064,
      "RHYME_209023": 4065,
      "જગવંદ": 4066,
      "વળગ": 4067,
      "વળું": 4068,
      "ગ્રહિ": 4069,
      "તેમાંથી": 4070,
      "અંક": 4071,
      "ઘોડા": 4072,
      "સહસ્ર": 4073,
      "RHYME_207580": 4074,
      "RHYME_211058": 4075,
      "ભર્યું": 4076,
      "અંતરધાન": 4077,
      "પ્રમાણે": 4078,
      "શ્રીકૃષ્ણને": 4079,
      "મિષ": 4080,
      "મુક્તાન": 4081,
      "જળમાં": 4082,
      "976": 4083,
      "અલબેલા": 4084,
      "દીનના": 4085,
      "રમત્ય": 4086,
      "RHYME_208361": 4087,
      "તપસી": 4088,
      "RHYME_206963": 4089,
      "RHYME_206998": 4090,
      "સદાશિવ": 4091,
      "RHYME_207951": 4092,
      "મનુષ": 4093,
      "RHYME_212994": 4094,
      "RHYME_208763": 4095,
      "અર્ક": 4096,
      "મૂળો": 4097,
      "RHYME_205428": 4098,
      "RHYME_205434": 4099,
      "RHYME_210326": 4100,
      "કુળમાં": 4101,
      "ફરતા": 4102,
      "RHYME_209721": 4103,
      "પુંડ": 4104,
      "RHYME_210432": 4105,
      "RHYME_206226": 4106,
      "સ્થળ": 4107,
      "RHYME_205767": 4108,
      "યુદ્ધ": 4109,
      "કૈક": 4110,
      "ટોળી": 4111,
      "જણાણું": 4112,
      "RHYME_213244": 4113,
      "મુક્તાનંદજી": 4114,
      "ઉપાડી": 4115,
      "કર્ણ": 4116,
      "ભ્રષ્ટ": 4117,
      "ઇન્દ્રિય": 4118,
      "ભાંગ": 4119,
      "RHYME_212412": 4120,
      "જાગિયા": 4121,
      "ઝીણો": 4122,
      "RHYME_209978": 4123,
      "દ્યાળ": 4124,
      "RHYME_213086": 4125,
      "પીડાય": 4126,
      "ચર્ચી": 4127,
      "RHYME_210403": 4128,
      "આસપાસ": 4129,
      "જક્તમાં": 4130,
      "RHYME_208358": 4131,
      "પૂજવા": 4132,
      "સ્વપ્": 4133,
      "પરાયણ": 4134,
      "દ્વારિકા": 4135,
      "દંડવત": 4136,
      "પહેર્યા": 4137,
      "ઇચ્છ્યા": 4138,
      "પૂર્ણ": 4139,
      "કાશીરામ": 4140,
      "ભાત્યનાં": 4141,
      "અજાણ્યે": 4142,
      "વિયોગ": 4143,
      "દેશોદેશ": 4144,
      "પોઢી": 4145,
      "પોઢિયા": 4146,
      "હૃદય": 4147,
      "મોટેરા": 4148,
      "RHYME_206787": 4149,
      "RHYME_209686": 4150,
      "RHYME_208489": 4151,
      "બાંધ્યો": 4152,
      "RHYME_208258": 4153,
      "RHYME_212700": 4154,
      "RHYME_205504": 4155,
      "RHYME_213260": 4156,
      "મેલ્યું": 4157,
      "લુવાણો": 4158,
      "નીસર્યા": 4159,
      "ભૂલ્યે": 4160,
      "જગતમાં": 4161,
      "મુકાવી": 4162,
      "કેટલાક": 4163,
      "RHYME_209201": 4164,
      "RHYME_213346": 4165,
      "શ્રુતિ": 4166,
      "રતનો": 4167,
      "શ્રદ્ધા": 4168,
      "અનાદિ": 4169,
      "અપરાધ": 4170,
      "રખવાળ": 4171,
      "ગામોગામ": 4172,
      "કાંયેક": 4173,
      "ઐશ્વર્ય": 4174,
      "શારદા": 4175,
      "સ્વામીશ્રીજીનું": 4176,
      "પતિવ્રતા": 4177,
      "અચિર": 4178,
      "પશ્ચિ": 4179,
      "વિશ્રામ": 4180,
      "મુક્તાનંદે": 4181,
      "અભ": 4182,
      "અળ": 4183,
      "અશ": 4184,
      "અસ": 4185,
      "અસાર": 4186,
      "અગર": 4187,
      "અરણ્ય": 4188,
      "અરુણ": 4189,
      "આમ": 4190,
      "આકાર": 4191,
      "ઉપાસ": 4192,
      "ઉતારા": 4193,
      "ઊભો": 4194,
      "કમા": 4195,
      "ગડે": 4196,
      "ગલાલ": 4197,
      "ચુ": 4198,
      "ચળે": 4199,
      "ચક્ર": 4200,
      "જમાં": 4201,
      "જમો": 4202,
      "જરી": 4203,
      "જંગ": 4204,
      "જગો": 4205,
      "જવાય": 4206,
      "જિત": 4207,
      "ઝળ": 4208,
      "ટુ": 4209,
      "ટ્યું": 4210,
      "ડં": 4211,
      "થડ": 4212,
      "દમાં": 4213,
      "નકિ": 4214,
      "પણા": 4215,
      "પહાડ": 4216,
      "બૈ": 4217,
      "બણી": 4218,
      "ભગુ": 4219,
      "યૂ": 4220,
      "યણે": 4221,
      "યક્ષ": 4222,
      "રસો": 4223,
      "લય": 4224,
      "લહે": 4225,
      "ળિયે": 4226,
      "વટ": 4227,
      "વલ": 4228,
      "વુ": 4229,
      "વશે": 4230,
      "વ્યે": 4231,
      "વચ્": 4232,
      "શસ્ત્ર": 4233,
      "ષદ": 4234,
      "ષી": 4235,
      "સહી": 4236,
      "સઠ્યે": 4237,
      "હઠી": 4238,
      "ુબા": 4239,
      "ૃંગ": 4240,
      "ૌઢ": 4241,
      "્ટ": 4242,
      "તેલ": 4243,
      "વાતે": 4244,
      "વાધ્યો": 4245,
      "ામણિ": 4246,
      "િયાર": 4247,
      "નાવાને": 4248,
      "માસે": 4249,
      "માનું": 4250,
      "માણાવ": 4251,
      "પ્રદેશ": 4252,
      "પ્રકરણ": 4253,
      "પ્રૌઢ": 4254,
      "જીવે": 4255,
      "વેલા": 4256,
      "વેગે": 4257,
      "જનનું": 4258,
      "જનવૃંદ": 4259,
      "વિસારી": 4260,
      "સુફળ": 4261,
      "રાણો": 4262,
      "રાયે": 4263,
      "રાત્યે": 4264,
      "સંવત": 4265,
      "સંપત્તિ": 4266,
      "RHYME_20723": 4267,
      "RHYME_207656": 4268,
      "હરજીવન": 4269,
      "હરામી": 4270,
      "હુલાસે": 4271,
      "RHYME_20877": 4272,
      "RHYME_208799": 4273,
      "તાલ": 4274,
      "નિહા": 4275,
      "નિશા": 4276,
      "નિશિ": 4277,
      "RHYME_20978": 4278,
      "RHYME_21023": 4279,
      "લાડી": 4280,
      "ભાત": 4281,
      "કાલ્ય": 4282,
      "RHYME_211615": 4283,
      "દાત": 4284,
      "દાળ": 4285,
      "મોર્ય": 4286,
      "મોકલ": 4287,
      "વીજળી": 4288,
      "સ્મૃતિ": 4289,
      "સાહે": 4290,
      "સાલિ": 4291,
      "સાચું": 4292,
      "સાત્ત્": 4293,
      "પરવેશ": 4294,
      "પરભાત્ય": 4295,
      "RHYME_21325": 4296,
      "કોટે": 4297,
      "આપણ": 4298,
      "આપણી": 4299,
      "એકાં": 4300,
      "હાનંદ": 4301,
      "બેન": 4302,
      "મનથી": 4303,
      "લેતાં": 4304,
      "લેવું": 4305,
      "પોત": 4306,
      "પોર": 4307,
      "ગીત": 4308,
      "ગામના": 4309,
      "તાંત": 4310,
      "સુખડી": 4311,
      "નામ્યાં": 4312,
      "ક્ષોભ": 4313,
      "પૂજી": 4314,
      "બોટા": 4315,
      "કૃશ": 4316,
      "ધાર્યો": 4317,
      "ખાતાં": 4318,
      "ખાધું": 4319,
      "રૂડે": 4320,
      "રામપ્રતાપ": 4321,
      "શીશે": 4322,
      "મહાર": 4323,
      "યોગે": 4324,
      "વારુ": 4325,
      "સોળ": 4326,
      "તેહનાં": 4327,
      "ગોપ": 4328,
      "ગોપા": 4329,
      "મહારાજનો": 4330,
      "દુલ": 4331,
      "ભેળો": 4332,
      "કૃષ્ણને": 4333,
      "સ્વામીનો": 4334,
      "માન્યા": 4335,
      "હ્ન": 4336,
      "પેચ": 4337,
      "પામિયો": 4338,
      "રોગ": 4339,
      "ભૂલે": 4340,
      "ધર્મમાં": 4341,
      "ધર્મની": 4342,
      "ધર્મનો": 4343,
      "વિનાનું": 4344,
      "કારજ": 4345,
      "કારજ્ય": 4346,
      "કાંતિ": 4347,
      "વ્યાળ": 4348,
      "જુન": 4349,
      "ત્યાગે": 4350,
      "આજથી": 4351,
      "ચિહ્ન": 4352,
      "સરખી": 4353,
      "શ્યામસુંદર": 4354,
      "દેવતા": 4355,
      "દેવરામ": 4356,
      "દેવજાતિ": 4357,
      "અવગુણ": 4358,
      "દોલ": 4359,
      "દુઃખે": 4360,
      "છાતી": 4361,
      "પ્રાક્ર": 4362,
      "પ્રાગજી": 4363,
      "સનમુખ": 4364,
      "સુરવાળ": 4365,
      "કંડે": 4366,
      "મોટાઈ": 4367,
      "ઠીક": 4368,
      "નિરમાન": 4369,
      "ભોગ": 4370,
      "પાસળ": 4371,
      "સ્વત": 4372,
      "RHYME_210195": 4373,
      "પુરપતિ": 4374,
      "પ્રેહ": 4375,
      "પિબૈ": 4376,
      "ધર્યા": 4377,
      "ધર્યાં": 4378,
      "RHYME_213171": 4379,
      "નારાયણજી": 4380,
      "652": 4381,
      "બોલ્યાં": 4382,
      "RHYME_208150": 4383,
      "ભીલ": 4384,
      "ભીમજી": 4385,
      "અવિનાશે": 4386,
      "સહ્યું": 4387,
      "સૂતા": 4388,
      "સૂરજ": 4389,
      "RHYME_211895": 4390,
      "ઠેકા": 4391,
      "જઈને": 4392,
      "746": 4393,
      "RHYME_211548": 4394,
      "મનુવાર": 4395,
      "શ્રીહરિની": 4396,
      "વિપ્રને": 4397,
      "RHYME_213461": 4398,
      "RHYME_213424": 4399,
      "અર્ધ": 4400,
      "કેશવજી": 4401,
      "ગોવિંદના": 4402,
      "ગોવિંદજી": 4403,
      "દેખાય": 4404,
      "દેખાડ્યો": 4405,
      "ભયં": 4406,
      "લિતા": 4407,
      "ખુશા": 4408,
      "પૂછ્યાં": 4409,
      "વાટમાં": 4410,
      "RHYME_213363": 4411,
      "ઇન્દુ": 4412,
      "ધ્યાનમાં": 4413,
      "ઉદ્ધવજી": 4414,
      "મંગા": 4415,
      "સુણ્યું": 4416,
      "RHYME_207226": 4417,
      "ત્રણ્યે": 4418,
      "ચિંતવન": 4419,
      "ચિંતામણિ": 4420,
      "કાઢ્યો": 4421,
      "સ્પરશે": 4422,
      "કૃપાએ": 4423,
      "કૈલાસ": 4424,
      "RHYME_206459": 4425,
      "RHYME_210963": 4426,
      "અલબેલોજી": 4427,
      "પ્રેમજી": 4428,
      "એટલા": 4429,
      "RHYME_212524": 4430,
      "સ્થાન": 4431,
      "ભાંગ્ય": 4432,
      "ગુલાલની": 4433,
      "પધરાવી": 4434,
      "ભિક્ષા": 4435,
      "સંભારે": 4436,
      "વખાણી": 4437,
      "પંચાળ": 4438,
      "મૂક્યો": 4439,
      "સેવકની": 4440,
      "RHYME_213303": 4441,
      "આગળ્યે": 4442,
      "જાંબુ": 4443,
      "નાગજી": 4444,
      "દુર્લભ": 4445,
      "ઓળખી": 4446,
      "દક્ષિણ": 4447,
      "સદ્‍ગુણ": 4448,
      "વિશરામ": 4449,
      "RHYME_209385": 4450,
      "RHYME_207448": 4451,
      "RHYME_208260": 4452,
      "રાઘવજી": 4453,
      "ઉતાવળા": 4454,
      "મૂરખને": 4455,
      "ભટ્ટ": 4456,
      "કર્તા": 4457,
      "હિતકારી": 4458,
      "દાદોભાઈ": 4459,
      "હ્‍લા": 4460,
      "ઊપજે": 4461,
      "રત્ન": 4462,
      "શક્યા": 4463,
      "શ્રાવણ": 4464,
      "મહારાજનાં": 4465,
      "તિલક": 4466,
      "રામાનુજ": 4467,
      "ગૌર": 4468,
      "દલુજી": 4469,
      "હૈયું": 4470,
      "અંગોઅંગ": 4471,
      "સગાઈ": 4472,
      "જન્મા": 4473,
      "હજારેહજાર": 4474,
      "વાગડ": 4475,
      "કીર્તન": 4476,
      "ભૂંડું": 4477,
      "દામોદર": 4478,
      "અગત્રાઈ": 4479,
      "મૌન": 4480,
      "પત્ની": 4481,
      "લછમન": 4482,
      "માણ્યક": 4483,
      "પ્રબોધની": 4484,
      "પુંડ્ર": 4485,
      "પશ્ચિમ": 4486,
      "અસવારી": 4487,
      "સાત્ત્વિક": 4488,
      "અભે": 4489,
      "અભાગ": 4490,
      "અશરણ": 4491,
      "અધર્મને": 4492,
      "અલેખે": 4493,
      "અત્તર": 4494,
      "આરો": 4495,
      "ઉછ": 4496,
      "ઉધાર": 4497,
      "ઉડુ": 4498,
      "ઉમરે": 4499,
      "ઉમેદ": 4500,
      "કપટ": 4501,
      "કપટી": 4502,
      "ગૂ": 4503,
      "ઘૂ": 4504,
      "ચ્ય": 4505,
      "ચરા": 4506,
      "ચડા": 4507,
      "છિયો": 4508,
      "જલ": 4509,
      "ઝર": 4510,
      "ઠર": 4511,
      "ઢી": 4512,
      "તક": 4513,
      "થવા": 4514,
      "નગાર": 4515,
      "નહીં": 4516,
      "નર્મ": 4517,
      "પારી": 4518,
      "ફુ": 4519,
      "બરો": 4520,
      "ભલ": 4521,
      "મં": 4522,
      "મ્યા": 4523,
      "મટી": 4524,
      "મંડા": 4525,
      "મથુ": 4526,
      "યં": 4527,
      "યવન": 4528,
      "રંજન": 4529,
      "રચ્યો": 4530,
      "ળ્યું": 4531,
      "વરી": 4532,
      "વદન": 4533,
      "શત": 4534,
      "ષભ": 4535,
      "સજી": 4536,
      "સણે": 4537,
      "રેલ": 4538,
      "નેહી": 4539,
      "્યાતા": 4540,
      "વાઈ": 4541,
      "વાવ્ય": 4542,
      "કરિ": 4543,
      "જેત": 4544,
      "RHYME_20671": 4545,
      "RHYME_206690": 4546,
      "RHYME_206658": 4547,
      "RHYME_206742": 4548,
      "નાવી": 4549,
      "છેક": 4550,
      "માત્ર": 4551,
      "માંડી": 4552,
      "પ્રશન": 4553,
      "પ્રદક્ષિણા": 4554,
      "પ્રલય": 4555,
      "વેલો": 4556,
      "જાત્ય": 4557,
      "વિશે": 4558,
      "વિશ્": 4559,
      "વિકાર": 4560,
      "સુભાગી": 4561,
      "રાઓ": 4562,
      "રાવે": 4563,
      "રાવણ": 4564,
      "રાઠો": 4565,
      "સંભ": 4566,
      "સંસારી": 4567,
      "નીરે": 4568,
      "RHYME_20721": 4569,
      "RHYME_20731": 4570,
      "RHYME_207907": 4571,
      "RHYME_207981": 4572,
      "હરામ": 4573,
      "હરખો": 4574,
      "RHYME_20878": 4575,
      "RHYME_20851": 4576,
      "RHYME_20840": 4577,
      "RHYME_20853": 4578,
      "પાડ": 4579,
      "પાછી": 4580,
      "પાનંદ": 4581,
      "તાએ": 4582,
      "તાવ": 4583,
      "તાતા": 4584,
      "ભક્તની": 4585,
      "હરિનાં": 4586,
      "હરિશું": 4587,
      "દેવનાં": 4588,
      "RHYME_21079": 4589,
      "RHYME_21025": 4590,
      "RHYME_21075": 4591,
      "RHYME_210271": 4592,
      "RHYME_210296": 4593,
      "RHYME_210957": 4594,
      "RHYME_210949": 4595,
      "લાભ": 4596,
      "લાજે": 4597,
      "લાનંદ": 4598,
      "ભારે": 4599,
      "ભાખે": 4600,
      "ભાનુ": 4601,
      "કાકો": 4602,
      "કાપે": 4603,
      "રહિત": 4604,
      "RHYME_21261": 4605,
      "RHYME_21279": 4606,
      "RHYME_21291": 4607,
      "RHYME_21253": 4608,
      "RHYME_21298": 4609,
      "RHYME_212996": 4610,
      "RHYME_212534": 4611,
      "RHYME_212342": 4612,
      "યાગ": 4613,
      "RHYME_21179": 4614,
      "RHYME_21190": 4615,
      "જોશું": 4616,
      "જોયે": 4617,
      "હિમા": 4618,
      "RHYME_20578": 4619,
      "RHYME_20545": 4620,
      "RHYME_20548": 4621,
      "કહેવી": 4622,
      "કહેશું": 4623,
      "મુકું": 4624,
      "બાજી": 4625,
      "ત્રિય": 4626,
      "દીજે": 4627,
      "પરશુરામ": 4628,
      "RHYME_2135": 4629,
      "સહુથી": 4630,
      "સહુનાં": 4631,
      "થાશો": 4632,
      "આપણાં": 4633,
      "નાથનાં": 4634,
      "કેડે": 4635,
      "કેશુ": 4636,
      "લેર્ય": 4637,
      "ક્તે": 4638,
      "ત્યાંના": 4639,
      "વનું": 4640,
      "પોકાર": 4641,
      "સેવ્યા": 4642,
      "સુખા": 4643,
      "સુખમાં": 4644,
      "નામાં": 4645,
      "નામનો": 4646,
      "ક્ષર": 4647,
      "પૂત": 4648,
      "બોચા": 4649,
      "રહેવાય": 4650,
      "ડેર": 4651,
      "શ્રમ": 4652,
      "રૂઠ્યા": 4653,
      "રામે": 4654,
      "રામણી": 4655,
      "સુંદરી": 4656,
      "શીખ્યા": 4657,
      "ટેવ": 4658,
      "સાંજ": 4659,
      "મૂં": 4660,
      "વારો": 4661,
      "સોના": 4662,
      "સોપારી": 4663,
      "ગુણી": 4664,
      "ગોંડ": 4665,
      "ગોવર્": 4666,
      "ગોકળ": 4667,
      "નરતન": 4668,
      "પીડે": 4669,
      "પીધું": 4670,
      "દુશાલ": 4671,
      "ભેટ": 4672,
      "ભેળું": 4673,
      "શ્રીનગર": 4674,
      "મારુ": 4675,
      "માન્યો": 4676,
      "વરસ": 4677,
      "વરતે": 4678,
      "વરદાન": 4679,
      "પેઠ્યે": 4680,
      "RHYME_206389": 4681,
      "સમજીને": 4682,
      "ભગવાને": 4683,
      "મુનિની": 4684,
      "મુનિરાય": 4685,
      "RHYME_206890": 4686,
      "RHYME_206831": 4687,
      "ચોં": 4688,
      "ચોરે": 4689,
      "શિશુ": 4690,
      "મળીને": 4691,
      "વર્ણા": 4692,
      "જમના": 4693,
      "જમરાણ": 4694,
      "છોડા": 4695,
      "RHYME_206155": 4696,
      "અંતર્": 4697,
      "દોભાઈ": 4698,
      "જીવની": 4699,
      "273": 4700,
      "274": 4701,
      "RHYME_209178": 4702,
      "RHYME_209145": 4703,
      "ત્રીશ": 4704,
      "સાંભળ્યું": 4705,
      "671": 4706,
      "674": 4707,
      "કરાળ": 4708,
      "કરાવો": 4709,
      "943": 4710,
      "RHYME_207866": 4711,
      "RHYME_207806": 4712,
      "RHYME_207803": 4713,
      "નિરમાની": 4714,
      "અમલ": 4715,
      "કાળિદાસ": 4716,
      "ભક્તિએ": 4717,
      "ભક્તિધર્મ": 4718,
      "RHYME_210822": 4719,
      "સ્વભાવે": 4720,
      "સ્વયં": 4721,
      "લોકને": 4722,
      "RHYME_206073": 4723,
      "સ્ત્રી": 4724,
      "RHYME_207079": 4725,
      "RHYME_207053": 4726,
      "954": 4727,
      "મૂરછા": 4728,
      "બ્રહ્મમો": 4729,
      "વાંસ": 4730,
      "જમાડ": 4731,
      "ધરમ": 4732,
      "RHYME_213109": 4733,
      "લાગ્યું": 4734,
      "RHYME_207191": 4735,
      "RHYME_207129": 4736,
      "પુરુષોત્ત": 4737,
      "RHYME_209820": 4738,
      "RHYME_209880": 4739,
      "તુલ": 4740,
      "RHYME_209043": 4741,
      "RHYME_209046": 4742,
      "RHYME_208193": 4743,
      "ભીખો": 4744,
      "649": 4745,
      "નીર્ખે": 4746,
      "RHYME_210053": 4747,
      "RHYME_207545": 4748,
      "RHYME_207544": 4749,
      "RHYME_207559": 4750,
      "RHYME_211055": 4751,
      "RHYME_211147": 4752,
      "નીરમાં": 4753,
      "629": 4754,
      "RHYME_212168": 4755,
      "RHYME_212870": 4756,
      "નિર્ધાર": 4757,
      "973": 4758,
      "ઉપવીત": 4759,
      "ઘાટે": 4760,
      "RHYME_208578": 4761,
      "પડશે": 4762,
      "RHYME_211883": 4763,
      "RHYME_211889": 4764,
      "RHYME_211803": 4765,
      "ઝાઝ": 4766,
      "ઝાડી": 4767,
      "રસબસ": 4768,
      "રાખવા": 4769,
      "666": 4770,
      "ક્યાંય": 4771,
      "સમાધિથી": 4772,
      "ન્દ્ર": 4773,
      "RHYME_210542": 4774,
      "પાપીને": 4775,
      "RHYME_212055": 4776,
      "RHYME_207977": 4777,
      "RHYME_207975": 4778,
      "બ્રાહ્મણને": 4779,
      "વૈરાગ": 4780,
      "પાંચાળ": 4781,
      "RHYME_205945": 4782,
      "RHYME_208726": 4783,
      "RHYME_208733": 4784,
      "બ્રહ્મન": 4785,
      "RHYME_213463": 4786,
      "RHYME_213430": 4787,
      "મરજી": 4788,
      "RHYME_205572": 4789,
      "RHYME_213008": 4790,
      "RHYME_206479": 4791,
      "RHYME_206465": 4792,
      "વર્ણીરાટ": 4793,
      "મંડપ": 4794,
      "થોડું": 4795,
      "RHYME_210378": 4796,
      "RHYME_212624": 4797,
      "RHYME_213350": 4798,
      "માંડ્યો": 4799,
      "ધરાનંદ": 4800,
      "આશરો": 4801,
      "શાસ્ત્રમાં": 4802,
      "RHYME_210430": 4803,
      "RHYME_210424": 4804,
      "RHYME_211968": 4805,
      "RHYME_211970": 4806,
      "ગણિત": 4807,
      "નિષ્કામ": 4808,
      "RHYME_212368": 4809,
      "સુણજ્યો": 4810,
      "કિલોલ": 4811,
      "પ્રકાશી": 4812,
      "પ્રકાશાનંદ": 4813,
      "RHYME_207620": 4814,
      "RHYME_207669": 4815,
      "કાઢો": 4816,
      "સ્પરશ": 4817,
      "RHYME_206267": 4818,
      "RHYME_206268": 4819,
      "મુક્તાનંદને": 4820,
      "કર્મે": 4821,
      "RHYME_208250": 4822,
      "ઇચ્છાય": 4823,
      "ંડાનંદ": 4824,
      "સૌને": 4825,
      "RHYME_206938": 4826,
      "RHYME_211668": 4827,
      "સ્થાપ": 4828,
      "કંઈક": 4829,
      "RHYME_212435": 4830,
      "RHYME_212419": 4831,
      "RHYME_206704": 4832,
      "RHYME_206708": 4833,
      "RHYME_208307": 4834,
      "હંમેશ": 4835,
      "જાગરણ": 4836,
      "ઝીણા": 4837,
      "RHYME_209975": 4838,
      "શૂળ": 4839,
      "શૂરા": 4840,
      "RHYME_213083": 4841,
      "કલ્": 4842,
      "માતાને": 4843,
      "વાલાને": 4844,
      "વાલાની": 4845,
      "ધેનુ": 4846,
      "રતનજી": 4847,
      "શરણે": 4848,
      "પુંજોભાઈ": 4849,
      "કમળનેણ": 4850,
      "વાલ્યમજી": 4851,
      "માણસ": 4852,
      "ગંગાદાસ": 4853,
      "RHYME_213302": 4854,
      "હામું": 4855,
      "RHYME_210265": 4856,
      "આદર્યો": 4857,
      "આદર્યું": 4858,
      "ધ્રુ": 4859,
      "સધાવિયા": 4860,
      "RHYME_207916": 4861,
      "RHYME_207917": 4862,
      "RHYME_213232": 4863,
      "હાલાર": 4864,
      "RHYME_209704": 4865,
      "RHYME_209706": 4866,
      "RHYME_205382": 4867,
      "પહેરાવી": 4868,
      "તૈયારી": 4869,
      "સઘળે": 4870,
      "કૌપીન": 4871,
      "RHYME_208610": 4872,
      "RHYME_208612": 4873,
      "પહોંચ્યા": 4874,
      "ક્ષેત્ર": 4875,
      "વડોદરા": 4876,
      "લાવ્યાં": 4877,
      "આતમા": 4878,
      "આતમાને": 4879,
      "વિશવાસ": 4880,
      "શોભારામ": 4881,
      "અલબેલડો": 4882,
      "બાંધ્યાં": 4883,
      "RHYME_207201": 4884,
      "RHYME_212309": 4885,
      "RHYME_211381": 4886,
      "સ્પર્શ": 4887,
      "RHYME_213266": 4888,
      "ષટ્": 4889,
      "RHYME_209289": 4890,
      "RHYME_209987": 4891,
      "સારંગપાણિ": 4892,
      "વિસ્તાર": 4893,
      "સોયામણાં": 4894,
      "જાદવ": 4895,
      "RHYME_212687": 4896,
      "RHYME_212688": 4897,
      "RHYME_205773": 4898,
      "RHYME_213402": 4899,
      "લીંબુ": 4900,
      "RHYME_206643": 4901,
      "RHYME_207904": 4902,
      "RHYME_209254": 4903,
      "RHYME_210210": 4904,
      "RHYME_205932": 4905,
      "પીરસ્યું": 4906,
      "માર્કંડે": 4907,
      "સુખદાયી": 4908,
      "જગાડી": 4909,
      "ઝોળી": 4910,
      "વારાહ": 4911,
      "કૃષ્ણે": 4912,
      "મહારાજનું": 4913,
      "ઉગારી": 4914,
      "રઘુવીર": 4915,
      "વખતો": 4916,
      "RHYME_208449": 4917,
      "RHYME_211211": 4918,
      "ઘરેણાં": 4919,
      "મહોલ": 4920,
      "આંખ્યો": 4921,
      "ઢુંઢ": 4922,
      "RHYME_208080": 4923,
      "RHYME_212311": 4924,
      "RHYME_205612": 4925,
      "વજ્ર": 4926,
      "સ્થિતિ": 4927,
      "આંગળી": 4928,
      "ચોમાસું": 4929,
      "જાનકીનાથ": 4930,
      "આદ્યે": 4931,
      "ભ્રકુટિ": 4932,
      "નટવર": 4933,
      "ચોરાશી": 4934,
      "બુરાન": 4935,
      "લાડીલો": 4936,
      "દાતણ": 4937,
      "સ્વતંત્ર": 4938,
      "નગારાં": 4939,
      "વિશેક": 4940,
      "ગોવર્ધન": 4941,
      "ંભ": 4942,
      "અદ્ર": 4943,
      "અકાજ": 4944,
      "અજાણે": 4945,
      "અદ્રિ": 4946,
      "અહિંસા": 4947,
      "અગણિત": 4948,
      "આણે": 4949,
      "આખા": 4950,
      "આઠું": 4951,
      "આતુર": 4952,
      "આત્માનંદ": 4953,
      "ઇછ": 4954,
      "ઉન": 4955,
      "ઉરે": 4956,
      "ઉખા": 4957,
      "ઊઠે": 4958,
      "ઓગણ": 4959,
      "ખં": 4960,
      "ખમા": 4961,
      "ખલા": 4962,
      "ખત્રી": 4963,
      "ગલો": 4964,
      "ગમી": 4965,
      "ગગન": 4966,
      "ચ્યારે": 4967,
      "ચંડ": 4968,
      "ચતુર": 4969,
      "ચમત્": 4970,
      "છળ": 4971,
      "છતાં": 4972,
      "જું": 4973,
      "જપે": 4974,
      "ઝટ": 4975,
      "ઝરે": 4976,
      "ટક": 4977,
      "ટાં": 4978,
      "ટલું": 4979,
      "ઠ્યો": 4980,
      "ઠિયા": 4981,
      "ડકે": 4982,
      "ણિયે": 4983,
      "તત્ત્વ": 4984,
      "થકા": 4985,
      "થિયા": 4986,
      "દગો": 4987,
      "દામાં": 4988,
      "દઉં": 4989,
      "દાંત": 4990,
      "ધણી": 4991,
      "ધારા": 4992,
      "નકી": 4993,
      "નચિંત": 4994,
      "નજર": 4995,
      "પય": 4996,
      "પલા": 4997,
      "પિયે": 4998,
      "ફી": 4999,
      "બક": 5000,
      "બદ": 5001,
      "બલ": 5002,
      "બજાર": 5003,
      "ભદ્ર": 5004,
      "મત્ય": 5005,
      "મદા": 5006,
      "મલ્": 5007,
      "મજલે": 5008,
      "રૈ": 5009,
      "રખા": 5010,
      "લગ": 5011,
      "લડી": 5012,
      "લડા": 5013,
      "લૌક": 5014,
      "લલિતા": 5015,
      "ળ્ય": 5016,
      "વધ": 5017,
      "વવા": 5018,
      "વસી": 5019,
      "વક્ર": 5020,
      "વલિ": 5021,
      "વંતા": 5022,
      "સત્યા": 5023,
      "સદ્ય": 5024,
      "સગાં": 5025,
      "સચેત": 5026,
      "હન": 5027,
      "હ્ય": 5028,
      "રેં": 5029,
      "્યાસ": 5030,
      "તેજે": 5031,
      "તેવો": 5032,
      "વાજ": 5033,
      "વાદે": 5034,
      "વાધે": 5035,
      "ર્થી": 5036,
      "RHYME_20653": 5037,
      "નાત્ય": 5038,
      "નાથી": 5039,
      "નાસિ": 5040,
      "માપ": 5041,
      "માંચો": 5042,
      "માંડ્યા": 5043,
      "પ્રણ": 5044,
      "પ્રતીત": 5045,
      "પ્રહ્‍લા": 5046,
      "જીભા": 5047,
      "જાજ્યો": 5048,
      "વિધન": 5049,
      "વિરુ": 5050,
      "વિરો": 5051,
      "વિશેષ": 5052,
      "વિકરાળ": 5053,
      "સુદી": 5054,
      "રાવ": 5055,
      "રાતા": 5056,
      "રાજુ": 5057,
      "સંકે": 5058,
      "નીશ": 5059,
      "આવતાં": 5060,
      "RHYME_20708": 5061,
      "હરણ": 5062,
      "મેષ": 5063,
      "મેના": 5064,
      "મેલ્યા": 5065,
      "મેળા": 5066,
      "RHYME_20875": 5067,
      "RHYME_208981": 5068,
      "RHYME_208332": 5069,
      "RHYME_208676": 5070,
      "RHYME_208376": 5071,
      "RHYME_208246": 5072,
      "પાને": 5073,
      "નિત્યાનંદ": 5074,
      "RHYME_209242": 5075,
      "ભક્તને": 5076,
      "હરિભજન": 5077,
      "દેવે": 5078,
      "દેહે": 5079,
      "RHYME_21048": 5080,
      "RHYME_21098": 5081,
      "લાપ": 5082,
      "લાડવા": 5083,
      "ભાગે": 5084,
      "ભાત્યે": 5085,
      "ભાઇયો": 5086,
      "ભાણજી": 5087,
      "ભાડેર": 5088,
      "કાઈ": 5089,
      "કાલુ": 5090,
      "રહિ": 5091,
      "જોગી": 5092,
      "જોડિયા": 5093,
      "હિરણ્ય": 5094,
      "હિંદુ": 5095,
      "દાડી": 5096,
      "RHYME_20575": 5097,
      "RHYME_205959": 5098,
      "મોડ": 5099,
      "દિરા": 5100,
      "તોરો": 5101,
      "કહેશો": 5102,
      "કહેવું": 5103,
      "વીં": 5104,
      "મુદ": 5105,
      "મુકુ": 5106,
      "મુનીશ": 5107,
      "રીઝે": 5108,
      "બાથ": 5109,
      "બારે": 5110,
      "નોતી": 5111,
      "નોતું": 5112,
      "ત્રૂ": 5113,
      "ત્રાં": 5114,
      "દીના": 5115,
      "નંદરામ": 5116,
      "પરમે": 5117,
      "પરવશ": 5118,
      "થાહ": 5119,
      "આપશે": 5120,
      "આપિયું": 5121,
      "એકને": 5122,
      "એકલા": 5123,
      "એકાંત": 5124,
      "કેવો": 5125,
      "હાસન": 5126,
      "લોહી": 5127,
      "મનાં": 5128,
      "મનના": 5129,
      "લેઈ": 5130,
      "લેપ": 5131,
      "સંતજન": 5132,
      "સંતદાસે": 5133,
      "પોષ": 5134,
      "ગામને": 5135,
      "પ્રભુએ": 5136,
      "પ્રભુમાં": 5137,
      "ક્ષી": 5138,
      "પુણ": 5139,
      "પુષ્ટ": 5140,
      "કૃતિ": 5141,
      "ધારણ": 5142,
      "ધારો": 5143,
      "રહેતા": 5144,
      "રૂમાલ": 5145,
      "શીદને": 5146,
      "યોગ્ય": 5147,
      "સાંજે": 5148,
      "મૂલ": 5149,
      "મૂલજી": 5150,
      "વારું": 5151,
      "તેહના": 5152,
      "કીર": 5153,
      "ગુજ": 5154,
      "ગુણા": 5155,
      "ગુફા": 5156,
      "જ્યોતિ": 5157,
      "ધીરા": 5158,
      "ગોત્ર": 5159,
      "ગોવો": 5160,
      "ગોપાલ": 5161,
      "ધર્મી": 5162,
      "ડાક": 5163,
      "ડાયો": 5164,
      "ડાહ્યા": 5165,
      "ત્તા": 5166,
      "પણામાં": 5167,
      "ભેરામ": 5168,
      "શાખા": 5169,
      "શાળા": 5170,
      "મોટપ્ય": 5171,
      "દર્શનની": 5172,
      "દર્શનદાન": 5173,
      "કૃષ્ણભક્તિ": 5174,
      "કોઈથી": 5175,
      "ચર્યા": 5176,
      "પેખ": 5177,
      "દ્રગે": 5178,
      "સીતા": 5179,
      "ગાયો": 5180,
      "રોટલી": 5181,
      "ભૂપ": 5182,
      "ભૂપતિ": 5183,
      "ધર્મદાસ": 5184,
      "સમસ્ત": 5185,
      "સમજુ": 5186,
      "સમૈયા": 5187,
      "હરિજનની": 5188,
      "RHYME_206891": 5189,
      "આદિક": 5190,
      "વ્યાસ": 5191,
      "છોટા": 5192,
      "સર્યા": 5193,
      "ગયાતા": 5194,
      "શ્યામળે": 5195,
      "દેવકી": 5196,
      "અલ્પ": 5197,
      "અંતઃ": 5198,
      "અવતારી": 5199,
      "ષ્ટમી": 5200,
      "છાના": 5201,
      "છાપો": 5202,
      "પ્રાય": 5203,
      "પ્રાપતિ": 5204,
      "જીવના": 5205,
      "જીવુબાઈ": 5206,
      "ખોટો": 5207,
      "જીવનને": 5208,
      "કંસ": 5209,
      "કંથા": 5210,
      "ડોલ": 5211,
      "લઈએ": 5212,
      "નારીને": 5213,
      "કરાવું": 5214,
      "કરાવ્યા": 5215,
      "249": 5216,
      "દુઃખહારી": 5217,
      "રંગા": 5218,
      "સામૈયે": 5219,
      "વૃંદે": 5220,
      "નારદ": 5221,
      "નિરભેરામ": 5222,
      "નિજજન": 5223,
      "બીજાનું": 5224,
      "સ્વજન": 5225,
      "ધામના": 5226,
      "દાનવ": 5227,
      "મુખ્ય": 5228,
      "લાલની": 5229,
      "વાંચી": 5230,
      "ગરબી": 5231,
      "પંથ": 5232,
      "બાળશર્મા": 5233,
      "તુલ્ય": 5234,
      "સાંભળીને": 5235,
      "ફૂલે": 5236,
      "ભીમો": 5237,
      "ભીડ્ય": 5238,
      "વળો": 5239,
      "વળતો": 5240,
      "વાસણ": 5241,
      "બંધૂ": 5242,
      "અંત્યે": 5243,
      "અંબાર": 5244,
      "ઘોડ": 5245,
      "ઘોષ": 5246,
      "લખ્યાં": 5247,
      "વણાર": 5248,
      "સિંહાસન": 5249,
      "RHYME_212887": 5250,
      "મિથ": 5251,
      "મિત્ર": 5252,
      "ઘાટી": 5253,
      "RHYME_208561": 5254,
      "પડિયા": 5255,
      "સૂર": 5256,
      "સાધુતા": 5257,
      "અસુરનો": 5258,
      "ઝાલ": 5259,
      "ફૂલદોલ": 5260,
      "રાખવી": 5261,
      "સિદ્ધિ": 5262,
      "રમતા": 5263,
      "RHYME_208328": 5264,
      "RHYME_206925": 5265,
      "RHYME_206945": 5266,
      "બારું": 5267,
      "બારણે": 5268,
      "ન્હા": 5269,
      "યાંથી": 5270,
      "વૈરાગી": 5271,
      "કળશ": 5272,
      "પૂરણબ્રહ્મ": 5273,
      "RHYME_206478": 5274,
      "દેવાનંદ": 5275,
      "વર્ણીએ": 5276,
      "દારિ": 5277,
      "વિષમ": 5278,
      "દેખાડ્યું": 5279,
      "સહજાનંદજી": 5280,
      "RHYME_205431": 5281,
      "ફેરી": 5282,
      "પૂછિયું": 5283,
      "વાસીને": 5284,
      "અષ્ટા": 5285,
      "અષ્ટાંગ": 5286,
      "વાણીએ": 5287,
      "ગણપતિ": 5288,
      "નિષ્કામી": 5289,
      "શાલગ્રામ": 5290,
      "ઉદ્ધવે": 5291,
      "કાનદાસ": 5292,
      "બળવંત": 5293,
      "કલ્યાણજી": 5294,
      "RHYME_207628": 5295,
      "કૃપાનિધિ": 5296,
      "વર્ષે": 5297,
      "સંઘને": 5298,
      "ટુંટ": 5299,
      "બુદ્ધિએ": 5300,
      "ઉપાધિ": 5301,
      "જૂઠી": 5302,
      "દામા": 5303,
      "સેવામાં": 5304,
      "પુત્રને": 5305,
      "અખંડાનંદ": 5306,
      "RHYME_212768": 5307,
      "સ્થાપન": 5308,
      "સામર્થ્ય": 5309,
      "ત્રિશૂળ": 5310,
      "કન્યા": 5311,
      "ગંધ": 5312,
      "માગ્યું": 5313,
      "અધિપતિ": 5314,
      "વેષે": 5315,
      "ચર્ણ": 5316,
      "રૂપાનંદ": 5317,
      "નિશદન": 5318,
      "ઉચ્ચે": 5319,
      "ખરચ": 5320,
      "વખાણું": 5321,
      "વાણ્યે": 5322,
      "સંતોષ": 5323,
      "RHYME_210405": 5324,
      "મૂક્યું": 5325,
      "માણશિયો": 5326,
      "ગંગાબાઈ": 5327,
      "વાલજી": 5328,
      "આણ્યો": 5329,
      "છૂટ": 5330,
      "જણસાલિ": 5331,
      "નાનજી": 5332,
      "દેખું": 5333,
      "ઊંચે": 5334,
      "પહેરાવે": 5335,
      "પુષ્પના": 5336,
      "સંભાર્યા": 5337,
      "અષ્ટમીનો": 5338,
      "કૌલ": 5339,
      "ગૃહ": 5340,
      "નવીન": 5341,
      "પ્રકાશક": 5342,
      "પહોંચા": 5343,
      "ન્યાય": 5344,
      "પર્વતભાઈ": 5345,
      "વાસાનંદ": 5346,
      "જાઈએ": 5347,
      "RHYME_208484": 5348,
      "RHYME_210203": 5349,
      "RHYME_212789": 5350,
      "દૂત": 5351,
      "શામજી": 5352,
      "પતંગ": 5353,
      "નૃસિંહ": 5354,
      "નિરાકાર": 5355,
      "નખશિખા": 5356,
      "હાંસી": 5357,
      "રાજોભાઈ": 5358,
      "દ્વેષી": 5359,
      "કેવાઇ": 5360,
      "આચારજ": 5361,
      "પ્યારા": 5362,
      "લૂં": 5363,
      "RHYME_206649": 5364,
      "RHYME_207692": 5365,
      "RHYME_207719": 5366,
      "દુરવાસા": 5367,
      "કપિલ": 5368,
      "જલેબી": 5369,
      "કર્તાં": 5370,
      "પ્રભાતે": 5371,
      "ગુલતાન": 5372,
      "શિખામણ": 5373,
      "ચૌદ": 5374,
      "સોંપી": 5375,
      "વૈષ્ણવી": 5376,
      "દ્વાદશ": 5377,
      "દ્વાદશી": 5378,
      "હૈયાની": 5379,
      "તેજોમય": 5380,
      "અમૂલ્ય": 5381,
      "ચૈત્ર": 5382,
      "ટળશે": 5383,
      "શરણાઈ": 5384,
      "પલંગ": 5385,
      "RHYME_210917": 5386,
      "અભયદાન": 5387,
      "RHYME_207680": 5388,
      "RHYME_207388": 5389,
      "શૂરવીર": 5390,
      "RHYME_208642": 5391,
      "ગાડલાં": 5392,
      "સમરતાં": 5393,
      "ઉતપાત": 5394,
      "ઠાકુરદાસ": 5395,
      "ધોલેરે": 5396,
      "મનુષ્યે": 5397,
      "માણાવદ્ર": 5398,
      "આપણને": 5399,
      "ગોપાળાનંદ": 5400,
      "બરોબર": 5401,
      "રાઠોડ": 5402,
      "અંતર્ધાન": 5403,
      "માર્કંડેય": 5404,
      "અદ્રશ્ય": 5405,
      "ચમત્કાર": 5406,
      "વિધનાં": 5407,
      "ંશ": 5408,
      "અસં": 5409,
      "અસિ": 5410,
      "અગમ": 5411,
      "અશુદ્ધ": 5412,
      "અશોક": 5413,
      "આમાં": 5414,
      "આકા": 5415,
      "આલો": 5416,
      "આડા": 5417,
      "આડો": 5418,
      "આગ્ય": 5419,
      "આદરે": 5420,
      "આથમ": 5421,
      "ઉગામ": 5422,
      "ઊભાં": 5423,
      "ઓચરે": 5424,
      "ક્ય": 5425,
      "કમાં": 5426,
      "કમો": 5427,
      "કલે": 5428,
      "કમંડ": 5429,
      "કઢા": 5430,
      "કંગા": 5431,
      "કબીર": 5432,
      "કચરો": 5433,
      "ખલ": 5434,
      "ખળ": 5435,
      "ખડે": 5436,
      "ખતરી": 5437,
      "ગવા": 5438,
      "ગદા": 5439,
      "ગ્રે": 5440,
      "ગદ્‍": 5441,
      "ઘસી": 5442,
      "ચમાં": 5443,
      "છપા": 5444,
      "જવ": 5445,
      "જ્યું": 5446,
      "જડી": 5447,
      "જડે": 5448,
      "જગે": 5449,
      "જિયે": 5450,
      "જારામ": 5451,
      "જૂર": 5452,
      "જથારથ": 5453,
      "ઝગે": 5454,
      "ડથ": 5455,
      "ઢં": 5456,
      "તટે": 5457,
      "તપી": 5458,
      "તળા": 5459,
      "તમાલ": 5460,
      "થના": 5461,
      "દવ": 5462,
      "દડી": 5463,
      "દહા": 5464,
      "દંગ": 5465,
      "દૈયે": 5466,
      "ધવા": 5467,
      "નમે": 5468,
      "નહી": 5469,
      "પૈ": 5470,
      "પિયો": 5471,
      "પત્રી": 5472,
      "પધારી": 5473,
      "ફણે": 5474,
      "ફકીર": 5475,
      "બણ": 5476,
      "બૃ": 5477,
      "બને": 5478,
      "બારી": 5479,
      "બામણ": 5480,
      "બટુ": 5481,
      "ભવન": 5482,
      "ભગા": 5483,
      "ભણું": 5484,
      "ભલું": 5485,
      "ભામી": 5486,
      "મ્ય": 5487,
      "મણી": 5488,
      "મચા": 5489,
      "મકન": 5490,
      "મછિયા": 5491,
      "યન": 5492,
      "યદુ": 5493,
      "રજે": 5494,
      "રમી": 5495,
      "રડે": 5496,
      "રવજી": 5497,
      "લવિ": 5498,
      "લડે": 5499,
      "ળ્યો": 5500,
      "ળિયો": 5501,
      "વદે": 5502,
      "વણી": 5503,
      "વદી": 5504,
      "વચા": 5505,
      "વટે": 5506,
      "વરુ": 5507,
      "વિયે": 5508,
      "વસ્ત": 5509,
      "વજેરામ": 5510,
      "વસુદેવ": 5511,
      "વયણે": 5512,
      "શૃંગ": 5513,
      "હલ": 5514,
      "હરા": 5515,
      "હસ્ત": 5516,
      "િને": 5517,
      "્માન": 5518,
      "્યનાં": 5519,
      "નેણે": 5520,
      "વાદિ": 5521,
      "વાનું": 5522,
      "વાળે": 5523,
      "વાલુ": 5524,
      "ામણ્ય": 5525,
      "કરમાં": 5526,
      "કરનાર": 5527,
      "િયામાં": 5528,
      "RHYME_20691": 5529,
      "નાસા": 5530,
      "નાતાં": 5531,
      "નાશી": 5532,
      "નાણું": 5533,
      "માલો": 5534,
      "માસી": 5535,
      "માસુર": 5536,
      "માંયે": 5537,
      "પ્રકર્": 5538,
      "પ્રચંડ": 5539,
      "કહિયો": 5540,
      "જીજીભાઈ": 5541,
      "વેરી": 5542,
      "વેળા": 5543,
      "જાવી": 5544,
      "જાગ્ય": 5545,
      "વિદ્ધ": 5546,
      "વિરાજ": 5547,
      "વિલાસ": 5548,
      "ળીબાઈ": 5549,
      "સુમતિ": 5550,
      "સુજશ": 5551,
      "સંસ્": 5552,
      "સંપન": 5553,
      "સંતાપે": 5554,
      "નીસરે": 5555,
      "આવ્ય": 5556,
      "આવવું": 5557,
      "RHYME_20777": 5558,
      "RHYME_20741": 5559,
      "RHYME_20725": 5560,
      "RHYME_20745": 5561,
      "RHYME_20751": 5562,
      "RHYME_20734": 5563,
      "RHYME_207607": 5564,
      "RHYME_207373": 5565,
      "RHYME_207757": 5566,
      "હરો": 5567,
      "હુલસી": 5568,
      "મેર": 5569,
      "મેડી": 5570,
      "મેમદા": 5571,
      "RHYME_20850": 5572,
      "RHYME_20823": 5573,
      "RHYME_20831": 5574,
      "RHYME_208690": 5575,
      "RHYME_208275": 5576,
      "પાગ": 5577,
      "પાથ": 5578,
      "પાળા": 5579,
      "પાતાળ": 5580,
      "નિવાસ": 5581,
      "RHYME_20950": 5582,
      "RHYME_20940": 5583,
      "RHYME_20975": 5584,
      "RHYME_209607": 5585,
      "RHYME_209752": 5586,
      "RHYME_209272": 5587,
      "RHYME_209999": 5588,
      "હરિકૃષ્ણ": 5589,
      "હરિકથા": 5590,
      "દેશું": 5591,
      "RHYME_21061": 5592,
      "RHYME_210412": 5593,
      "લાધાર": 5594,
      "લાકડી": 5595,
      "ભાજન": 5596,
      "ંદરે": 5597,
      "કાદિ": 5598,
      "કાચું": 5599,
      "કાછિયો": 5600,
      "RHYME_21244": 5601,
      "RHYME_21221": 5602,
      "RHYME_21238": 5603,
      "RHYME_21254": 5604,
      "RHYME_212619": 5605,
      "RHYME_212942": 5606,
      "RHYME_212617": 5607,
      "યાનંદ": 5608,
      "RHYME_21130": 5609,
      "RHYME_21108": 5610,
      "RHYME_21143": 5611,
      "RHYME_211992": 5612,
      "RHYME_211376": 5613,
      "RHYME_211972": 5614,
      "જોતે": 5615,
      "જોરો": 5616,
      "જોઉં": 5617,
      "હિરણ": 5618,
      "દાડે": 5619,
      "RHYME_20541": 5620,
      "RHYME_20560": 5621,
      "RHYME_205996": 5622,
      "દિગ": 5623,
      "િયાળે": 5624,
      "તોરણ": 5625,
      "સારે": 5626,
      "સાધન": 5627,
      "મુખી": 5628,
      "બાહુ": 5629,
      "બાદર": 5630,
      "ત્રણે": 5631,
      "નંદા": 5632,
      "પરતાપ": 5633,
      "કોશ": 5634,
      "કોતરી": 5635,
      "થાવું": 5636,
      "આપું": 5637,
      "ચાણ": 5638,
      "ચાકરી": 5639,
      "શેરી": 5640,
      "લીએ": 5641,
      "એકલો": 5642,
      "કેનું": 5643,
      "અતિશય": 5644,
      "લોટ": 5645,
      "મીટે": 5646,
      "મીઠા": 5647,
      "ભુવને": 5648,
      "બેટ": 5649,
      "બેઠું": 5650,
      "મનજી": 5651,
      "લેરી": 5652,
      "લેશું": 5653,
      "લેવો": 5654,
      "ંગી": 5655,
      "સંતનો": 5656,
      "સર્જૂ": 5657,
      "પોં": 5658,
      "પોંચી": 5659,
      "સુખસાગર": 5660,
      "નામની": 5661,
      "પ્રભુશું": 5662,
      "પૂછો": 5663,
      "પૂછું": 5664,
      "બોર": 5665,
      "બોળી": 5666,
      "ધારું": 5667,
      "ધાર્યા": 5668,
      "રહેજ્યે": 5669,
      "ખાણ": 5670,
      "ખાવું": 5671,
      "શીખે": 5672,
      "જાણ્યો": 5673,
      "શોર": 5674,
      "સાંગો": 5675,
      "સાંકળ": 5676,
      "સાંકળી": 5677,
      "ણાય": 5678,
      "સોનાર": 5679,
      "તેહની": 5680,
      "ત્વચા": 5681,
      "સુંદરજી": 5682,
      "કીટ": 5683,
      "કીજે": 5684,
      "સ્વાદી": 5685,
      "ગોત": 5686,
      "ગોર": 5687,
      "ગોકળી": 5688,
      "દર્શ": 5689,
      "ધર્વ": 5690,
      "ધર્માનંદ": 5691,
      "પારવતી": 5692,
      "નરહર": 5693,
      "ગેહે": 5694,
      "રુદ": 5695,
      "રુદે": 5696,
      "સાંભર": 5697,
      "થાયે": 5698,
      "ળાઈ": 5699,
      "અનન્ય": 5700,
      "કૃષ્ણભક્ત": 5701,
      "કૃષ્ણદાસ": 5702,
      "કૃષ્ણશર્મા": 5703,
      "ચરચ્યું": 5704,
      "સ્વામીજી": 5705,
      "આવીશ": 5706,
      "વરણ": 5707,
      "વરતિ": 5708,
      "વરષા": 5709,
      "હોયે": 5710,
      "પામો": 5711,
      "RHYME_206326": 5712,
      "RHYME_206323": 5713,
      "RHYME_206327": 5714,
      "RHYME_206392": 5715,
      "RHYME_206306": 5716,
      "RHYME_206384": 5717,
      "ગાઓ": 5718,
      "ગાડી": 5719,
      "ગાડે": 5720,
      "રોષ": 5721,
      "હરિજનના": 5722,
      "ધાતુ": 5723,
      "RHYME_206847": 5724,
      "RHYME_206813": 5725,
      "કટિ": 5726,
      "વ્યાપે": 5727,
      "જમતા": 5728,
      "જમવું": 5729,
      "જમપુરી": 5730,
      "RHYME_206191": 5731,
      "RHYME_206140": 5732,
      "RHYME_206153": 5733,
      "સરસ": 5734,
      "દેવજી": 5735,
      "અંતકાળે": 5736,
      "અવધ્ય": 5737,
      "અવતર્યા": 5738,
      "પ્રાણી": 5739,
      "જીવતો": 5740,
      "પ્રકટી": 5741,
      "ખોટું": 5742,
      "હવેલી": 5743,
      "દનુ": 5744,
      "RHYME_209119": 5745,
      "RHYME_209159": 5746,
      "RHYME_209105": 5747,
      "સન્માન": 5748,
      "RHYME_205840": 5749,
      "RHYME_205821": 5750,
      "RHYME_205876": 5751,
      "સુરપુર": 5752,
      "કંજ": 5753,
      "કંકુ": 5754,
      "કંકોતરી": 5755,
      "675": 5756,
      "રંગની": 5757,
      "સામત": 5758,
      "સામસામા": 5759,
      "સામર્થી": 5760,
      "હાથશું": 5761,
      "વૃષ્ટિ": 5762,
      "સુણીને": 5763,
      "RHYME_207869": 5764,
      "RHYME_207898": 5765,
      "RHYME_207892": 5766,
      "નિરંતર": 5767,
      "જ્જા": 5768,
      "ભોં": 5769,
      "ભોમ": 5770,
      "પોતાનો": 5771,
      "આંસુ": 5772,
      "RHYME_210826": 5773,
      "RHYME_210869": 5774,
      "RHYME_210821": 5775,
      "RHYME_210837": 5776,
      "RHYME_210887": 5777,
      "RHYME_208034": 5778,
      "RHYME_208074": 5779,
      "RHYME_208009": 5780,
      "RHYME_208072": 5781,
      "RHYME_208019": 5782,
      "RHYME_208013": 5783,
      "RHYME_208018": 5784,
      "તમથી": 5785,
      "RHYME_210121": 5786,
      "RHYME_210131": 5787,
      "RHYME_210152": 5788,
      "RHYME_210114": 5789,
      "ચાલ્ય": 5790,
      "RHYME_206077": 5791,
      "RHYME_206076": 5792,
      "RHYME_206019": 5793,
      "RHYME_206000": 5794,
      "RHYME_206005": 5795,
      "મુખમાં": 5796,
      "મુખવાસ": 5797,
      "RHYME_207071": 5798,
      "952": 5799,
      "બ્રહ્મમહોલ": 5800,
      "પ્રભુજીનું": 5801,
      "ગરદી": 5802,
      "RHYME_206530": 5803,
      "RHYME_206527": 5804,
      "RHYME_206580": 5805,
      "જયકાર": 5806,
      "ખ્યાલ": 5807,
      "પિતા": 5808,
      "ધરશે": 5809,
      "RHYME_213151": 5810,
      "RHYME_213198": 5811,
      "RHYME_213172": 5812,
      "RHYME_207151": 5813,
      "RHYME_207194": 5814,
      "RHYME_207196": 5815,
      "પતિત": 5816,
      "બુધે": 5817,
      "RHYME_209877": 5818,
      "RHYME_209823": 5819,
      "RHYME_209883": 5820,
      "તુચ્છ": 5821,
      "તુલાધાર": 5822,
      "RHYME_209028": 5823,
      "RHYME_209039": 5824,
      "બોલવા": 5825,
      "લુણ": 5826,
      "જગમાં": 5827,
      "RHYME_208191": 5828,
      "RHYME_208192": 5829,
      "RHYME_208102": 5830,
      "ગ્રા": 5831,
      "643": 5832,
      "અંધ": 5833,
      "અંશ": 5834,
      "ઘોડી": 5835,
      "RHYME_210050": 5836,
      "RHYME_207553": 5837,
      "RHYME_207566": 5838,
      "RHYME_207557": 5839,
      "RHYME_211068": 5840,
      "RHYME_211098": 5841,
      "RHYME_211067": 5842,
      "ચીજ": 5843,
      "RHYME_211195": 5844,
      "RHYME_211176": 5845,
      "મહાદેવ": 5846,
      "મહાધીર": 5847,
      "RHYME_212163": 5848,
      "RHYME_212194": 5849,
      "RHYME_212157": 5850,
      "RHYME_212158": 5851,
      "RHYME_212181": 5852,
      "RHYME_212877": 5853,
      "RHYME_212867": 5854,
      "RHYME_212808": 5855,
      "974": 5856,
      "ઉપકાર": 5857,
      "RHYME_208553": 5858,
      "RHYME_208593": 5859,
      "સૂતાં": 5860,
      "RHYME_211827": 5861,
      "RHYME_208876": 5862,
      "RHYME_208805": 5863,
      "અસુરને": 5864,
      "ભાવેશું": 5865,
      "ઝાઝી": 5866,
      "રાખવું": 5867,
      "ગુરુને": 5868,
      "ગુરુની": 5869,
      "સિદ્ધને": 5870,
      "RHYME_207367": 5871,
      "RHYME_207324": 5872,
      "RHYME_208322": 5873,
      "749": 5874,
      "292": 5875,
      "વ્યોમ": 5876,
      "RHYME_206994": 5877,
      "જોડીને": 5878,
      "પાપીએ": 5879,
      "RHYME_211530": 5880,
      "RHYME_211544": 5881,
      "RHYME_211528": 5882,
      "RHYME_211540": 5883,
      "RHYME_211559": 5884,
      "RHYME_211542": 5885,
      "RHYME_206637": 5886,
      "RHYME_207950": 5887,
      "RHYME_207923": 5888,
      "RHYME_207929": 5889,
      "RHYME_212978": 5890,
      "RHYME_212924": 5891,
      "RHYME_206508": 5892,
      "RHYME_207426": 5893,
      "RHYME_207450": 5894,
      "RHYME_207495": 5895,
      "RHYME_207465": 5896,
      "RHYME_207433": 5897,
      "હેતેશું": 5898,
      "પાંડે": 5899,
      "RHYME_205927": 5900,
      "ધરીને": 5901,
      "RHYME_206778": 5902,
      "RHYME_206738": 5903,
      "RHYME_208769": 5904,
      "RHYME_208753": 5905,
      "બ્રહ્માં": 5906,
      "RHYME_213421": 5907,
      "મરશે": 5908,
      "મરકી": 5909,
      "RHYME_209320": 5910,
      "RHYME_209353": 5911,
      "RHYME_205545": 5912,
      "RHYME_205544": 5913,
      "RHYME_205570": 5914,
      "શંભુ": 5915,
      "વર્ણીને": 5916,
      "ગમ્યું": 5917,
      "ગોવિંદરામ": 5918,
      "RHYME_211278": 5919,
      "RHYME_211226": 5920,
      "RHYME_211223": 5921,
      "RHYME_208491": 5922,
      "RHYME_208427": 5923,
      "RHYME_208494": 5924,
      "ફેલી": 5925,
      "RHYME_207748": 5926,
      "RHYME_207727": 5927,
      "RHYME_210331": 5928,
      "ફરવા": 5929,
      "RHYME_209563": 5930,
      "RHYME_209541": 5931,
      "RHYME_209731": 5932,
      "RHYME_212644": 5933,
      "RHYME_213348": 5934,
      "મૂર્તિમાં": 5935,
      "આશરે": 5936,
      "હજારું": 5937,
      "વાળો": 5938,
      "વાળાં": 5939,
      "વાળ્યા": 5940,
      "RHYME_211927": 5941,
      "ફરીને": 5942,
      "RHYME_206278": 5943,
      "RHYME_206270": 5944,
      "RHYME_208663": 5945,
      "RHYME_208661": 5946,
      "સુણ્યા": 5947,
      "સુણ્યાં": 5948,
      "સ્થૂ": 5949,
      "કિશોર": 5950,
      "રાજાને": 5951,
      "RHYME_210930": 5952,
      "જિજ્ઞા": 5953,
      "RHYME_211361": 5954,
      "RHYME_213230": 5955,
      "RHYME_213240": 5956,
      "RHYME_213299": 5957,
      "જમીને": 5958,
      "દૈવી": 5959,
      "પ્રેમબાઈ": 5960,
      "તજું": 5961,
      "મનાણું": 5962,
      "RHYME_206647": 5963,
      "શિવરામ": 5964,
      "RHYME_206254": 5965,
      "RHYME_206257": 5966,
      "વરતાલમાં": 5967,
      "જરકસી": 5968,
      "જૂઠું": 5969,
      "મંદિરમાં": 5970,
      "RHYME_212530": 5971,
      "સ્થાપી": 5972,
      "ઇન્દ્રિ": 5973,
      "RHYME_212427": 5974,
      "જન્મમરણ": 5975,
      "RHYME_208301": 5976,
      "મેઘપુર": 5977,
      "RHYME_205621": 5978,
      "RHYME_205624": 5979,
      "RHYME_205622": 5980,
      "ગાંધર્વ": 5981,
      "પ્રતિમા": 5982,
      "RHYME_211778": 5983,
      "RHYME_211723": 5984,
      "અધિરાજ": 5985,
      "કલ્પ": 5986,
      "કંઠમાં": 5987,
      "ચર્ણે": 5988,
      "નમ્યા": 5989,
      "સંભાળી": 5990,
      "RHYME_211441": 5991,
      "ખરાં": 5992,
      "દંબ": 5993,
      "વખાણે": 5994,
      "RHYME_208906": 5995,
      "ગોપાળજી": 5996,
      "વહાલો": 5997,
      "વિવેકી": 5998,
      "RHYME_208359": 5999,
      "સ્વપને": 6000,
      "દક્ષણી": 6001,
      "કારણના": 6002,
      "પરાણે": 6003,
      "વાઘજી": 6004,
      "દ્વારામ": 6005,
      "RHYME_213306": 6006,
      "RHYME_213319": 6007,
      "છૂટી": 6008,
      "હસીને": 6009,
      "RHYME_213413": 6010,
      "કેટલી": 6011,
      "RHYME_206083": 6012,
      "કષ્ટમાં": 6013,
      "જાવાનું": 6014,
      "RHYME_209709": 6015,
      "અજિત": 6016,
      "અરિ": 6017,
      "કુસંગીને": 6018,
      "પહેરાવિયા": 6019,
      "RHYME_207302": 6020,
      "RHYME_207303": 6021,
      "વધારિયા": 6022,
      "સઘળું": 6023,
      "સંભારું": 6024,
      "RHYME_210291": 6025,
      "RHYME_205691": 6026,
      "RHYME_213359": 6027,
      "ક્ષ્મ": 6028,
      "પોઢ્યા": 6029,
      "તુલસીની": 6030,
      "હૃદે": 6031,
      "શ્યામળિયો": 6032,
      "ગર્ભ": 6033,
      "તાળીશે": 6034,
      "જુગતે": 6035,
      "બંધિયે": 6036,
      "આતમાર": 6037,
      "ગરીબ": 6038,
      "ડભાણે": 6039,
      "જાઈશ": 6040,
      "RHYME_208454": 6041,
      "RHYME_212785": 6042,
      "ગણીએ": 6043,
      "RHYME_207440": 6044,
      "RHYME_209775": 6045,
      "RHYME_212300": 6046,
      "RHYME_211780": 6047,
      "RHYME_211383": 6048,
      "દલમાં": 6049,
      "મેલ્યો": 6050,
      "RHYME_210624": 6051,
      "એંધાણી": 6052,
      "લટકાં": 6053,
      "નાહીને": 6054,
      "રાક્ષસી": 6055,
      "RHYME_208794": 6056,
      "RHYME_208795": 6057,
      "લુવાણા": 6058,
      "નીસર્યું": 6059,
      "નિરાશ": 6060,
      "શીતળ": 6061,
      "સોયામણું": 6062,
      "ઉત્થાપ": 6063,
      "RHYME_207262": 6064,
      "RHYME_207267": 6065,
      "RHYME_207487": 6066,
      "RHYME_209633": 6067,
      "લીંબ": 6068,
      "નીરખિયા": 6069,
      "સત્સંગમાં": 6070,
      "કુંવર્યબાઈ": 6071,
      "વધાઈ": 6072,
      "RHYME_212509": 6073,
      "RHYME_205405": 6074,
      "પદ્મ": 6075,
      "RHYME_206449": 6076,
      "RHYME_206900": 6077,
      "RHYME_207902": 6078,
      "RHYME_208630": 6079,
      "RHYME_208205": 6080,
      "RHYME_208911": 6081,
      "RHYME_210786": 6082,
      "RHYME_210902": 6083,
      "RHYME_211232": 6084,
      "સરિતા": 6085,
      "હંસરાજ": 6086,
      "સુખદાયક": 6087,
      "લક્ષ્મીનારાયણ": 6088,
      "RHYME_206237": 6089,
      "RHYME_211443": 6090,
      "કૃષ્ણા": 6091,
      "શ્રાદ્ધ": 6092,
      "વરણીરાટ": 6093,
      "વખત": 6094,
      "હસ્યા": 6095,
      "કહાવે": 6096,
      "સુરાસુર": 6097,
      "RHYME_209446": 6098,
      "RHYME_210632": 6099,
      "RHYME_210442": 6100,
      "RHYME_210443": 6101,
      "RHYME_210606": 6102,
      "RHYME_210939": 6103,
      "RHYME_212082": 6104,
      "RHYME_212756": 6105,
      "ત્રોડી": 6106,
      "અહંકાર": 6107,
      "અહંકારી": 6108,
      "નરેશ": 6109,
      "મટકું": 6110,
      "RHYME_208216": 6111,
      "RHYME_209266": 6112,
      "લાડકી": 6113,
      "ગુજરધર": 6114,
      "ચૈતન": 6115,
      "વેણીદાસ": 6116,
      "RHYME_207536": 6117,
      "RHYME_209901": 6118,
      "RHYME_210318": 6119,
      "RHYME_210355": 6120,
      "RHYME_213459": 6121,
      "ત્રેય": 6122,
      "ધર્મનું": 6123,
      "ટાળવા": 6124,
      "ઊર્ધ્વપુંડ્ર": 6125,
      "ચતુર્": 6126,
      "મગાવી": 6127,
      "માધવ": 6128,
      "પ્રાંતનાં": 6129,
      "નિસ્પ્રેહ": 6130,
      "ભૂંડાઈ": 6131,
      "અનુરાગે": 6132,
      "આસુરી": 6133,
      "ઉજાગર": 6134,
      "પતાસાં": 6135,
      "હણ્યા": 6136,
      "RHYME_207785": 6137,
      "RHYME_207403": 6138,
      "RHYME_209531": 6139,
      "RHYME_209713": 6140,
      "RHYME_210084": 6141,
      "RHYME_212904": 6142,
      "RHYME_212715": 6143,
      "RHYME_211285": 6144,
      "RHYME_205717": 6145,
      "રૂપાળાં": 6146,
      "આંબલી": 6147,
      "તામસી": 6148,
      "અબળા": 6149,
      "અનિમેષ": 6150,
      "ચડોતરે": 6151,
      "જંતુ": 6152,
      "નજીક": 6153,
      "વરતંત": 6154,
      "અંકિત": 6155,
      "દ્યાળજી": 6156,
      "અભ્યાસ": 6157,
      "વુઠો": 6158,
      "વચ્ચે": 6159,
      "સાહેબ": 6160,
      "બોટાદ": 6161,
      "મહારસ": 6162,
      "ઠેકાણે": 6163,
      "જન્માષ્ટમી": 6164,
      "સંભળા": 6165,
      "વાંસળી": 6166,
      "લૌકિક": 6167,
      "નાસિકા": 6168,
      "RHYME_210984": 6169,
      "દીનાનાથ": 6170,
      "ગુજરાત્ય": 6171,
      "અંતઃકરણ": 6172,
      "વણારશી": 6173,
      "મિથ્યા": 6174,
      "દારિદ્ર": 6175,
      "ટુંટિયું": 6176,
      "કંગાલ": 6177,
      "ગદ્‍ગદ": 6178,
      "બૃહ": 6179,
      "લવિંગ": 6180,
      "પ્રકર્ણે": 6181,
      "હિરણ્યા": 6182,
      "વરષાત": 6183,
      "ંબ": 6184,
      "ંથી": 6185,
      "અજા": 6186,
      "અહિ": 6187,
      "અચા": 6188,
      "અમી": 6189,
      "અસંત": 6190,
      "અસ્ત": 6191,
      "અવર": 6192,
      "અધર": 6193,
      "અજ્ઞાની": 6194,
      "અબીર": 6195,
      "અદોભાઈ": 6196,
      "અથાહ": 6197,
      "આગ": 6198,
      "આથી": 6199,
      "આડી": 6200,
      "આલે": 6201,
      "આખ્યા": 6202,
      "આચરણ": 6203,
      "આજાન": 6204,
      "આસ્તિક": 6205,
      "ઈને": 6206,
      "ઉદ": 6207,
      "ઉના": 6208,
      "ઉદર": 6209,
      "ઉડા": 6210,
      "ઉભે": 6211,
      "ઉદ્ય": 6212,
      "ઉદ્‍": 6213,
      "ઉચાટ": 6214,
      "ઊભી": 6215,
      "ઊગરે": 6216,
      "એલ": 6217,
      "ઓઝો": 6218,
      "કડ": 6219,
      "ક્યા": 6220,
      "કના": 6221,
      "કશિ": 6222,
      "કમર": 6223,
      "કડિયા": 6224,
      "કદંબ": 6225,
      "ખસ": 6226,
      "ગઉ": 6227,
      "ગલ": 6228,
      "ગત્ય": 6229,
      "ઘ્ર": 6230,
      "ઘડે": 6231,
      "ચ્યાં": 6232,
      "ચમત": 6233,
      "ચકોર": 6234,
      "છપ": 6235,
      "છતા": 6236,
      "છત્ર": 6237,
      "છડી": 6238,
      "છબિ": 6239,
      "જૈ": 6240,
      "જલો": 6241,
      "જજ્ઞ": 6242,
      "ટલા": 6243,
      "ટકે": 6244,
      "ઠવડી": 6245,
      "ડાર": 6246,
      "ડમાં": 6247,
      "ડરી": 6248,
      "ડશે": 6249,
      "ડિયું": 6250,
      "તં": 6251,
      "તડ": 6252,
      "તય": 6253,
      "તવ": 6254,
      "તસ": 6255,
      "તમો": 6256,
      "તદર": 6257,
      "તરો": 6258,
      "તપાસ": 6259,
      "દમ": 6260,
      "દળી": 6261,
      "દારી": 6262,
      "દદુ": 6263,
      "ધિયે": 6264,
      "ધરો": 6265,
      "નભ": 6266,
      "નવે": 6267,
      "નમી": 6268,
      "નિયો": 6269,
      "નયણ": 6270,
      "નગરે": 6271,
      "પિય": 6272,
      "પછે": 6273,
      "પની": 6274,
      "પ્યો": 6275,
      "પશું": 6276,
      "પદાર": 6277,
      "બગ": 6278,
      "બારા": 6279,
      "બપો": 6280,
      "બકી": 6281,
      "ભૌ": 6282,
      "ભર્": 6283,
      "ભવિ": 6284,
      "ભજો": 6285,
      "ભક્ષ": 6286,
      "ભણા": 6287,
      "ભજને": 6288,
      "ભજિયાં": 6289,
      "ભજવા": 6290,
      "મગ": 6291,
      "મઢ": 6292,
      "મશ": 6293,
      "મશી": 6294,
      "મકુ": 6295,
      "મિયે": 6296,
      "મધ્ય": 6297,
      "મચ્યો": 6298,
      "યથા": 6299,
      "યથારથ": 6300,
      "રક્ત": 6301,
      "રસા": 6302,
      "રવો": 6303,
      "રઘો": 6304,
      "રબારી": 6305,
      "લર": 6306,
      "લૈ": 6307,
      "લ્યો": 6308,
      "લતા": 6309,
      "લહું": 6310,
      "લવજી": 6311,
      "ળિયું": 6312,
      "વમાં": 6313,
      "વનિ": 6314,
      "વલે": 6315,
      "વસો": 6316,
      "વડાં": 6317,
      "શવજી": 6318,
      "ષો": 6319,
      "સૈ": 6320,
      "સ્ય": 6321,
      "સખી": 6322,
      "સરો": 6323,
      "સગર": 6324,
      "સત્ત્વ": 6325,
      "હય": 6326,
      "હજી": 6327,
      "ુષ": 6328,
      "ૂંક": 6329,
      "ોક્ષ": 6330,
      "્નાથ": 6331,
      "રેક": 6332,
      "રેવા": 6333,
      "રેખા": 6334,
      "નેત્ર": 6335,
      "તેર": 6336,
      "તેલી": 6337,
      "તેશું": 6338,
      "વાવે": 6339,
      "વાલાં": 6340,
      "ામા": 6341,
      "ામણો": 6342,
      "કરૂર": 6343,
      "ર્ષ": 6344,
      "ર્જર": 6345,
      "જેઠ": 6346,
      "નાજો": 6347,
      "નાથા": 6348,
      "નાશે": 6349,
      "નાખ્યા": 6350,
      "નાભિ": 6351,
      "માદિ": 6352,
      "માયે": 6353,
      "માબાપ": 6354,
      "પ્રહાર": 6355,
      "પ્રશં": 6356,
      "પ્રદેશે": 6357,
      "પ્રકૃતિ": 6358,
      "જીના": 6359,
      "જીત્યો": 6360,
      "વેલાલ": 6361,
      "જનાં": 6362,
      "જાતો": 6363,
      "જાતી": 6364,
      "જાત્યે": 6365,
      "વિત": 6366,
      "વિશન": 6367,
      "વિહાર": 6368,
      "વિકળ": 6369,
      "વિરાજે": 6370,
      "વિવાહ": 6371,
      "વિચિત્ર": 6372,
      "વિબુધ": 6373,
      "વિલાપ": 6374,
      "સુમ": 6375,
      "સુવે": 6376,
      "સુરો": 6377,
      "સુણ્ય": 6378,
      "સુબુદ્ધ": 6379,
      "સુવર્ણ": 6380,
      "રાદિ": 6381,
      "રાણે": 6382,
      "રાતી": 6383,
      "રાસમ": 6384,
      "સંવાદ": 6385,
      "નીલા": 6386,
      "નીકળી": 6387,
      "ત્યું": 6388,
      "આવિયું": 6389,
      "તિથિ": 6390,
      "હર્યું": 6391,
      "હરિયે": 6392,
      "મેડે": 6393,
      "પાશ": 6394,
      "પાટે": 6395,
      "પાણા": 6396,
      "તાતને": 6397,
      "નિકટ": 6398,
      "RHYME_209690": 6399,
      "દેસાઈ": 6400,
      "લાલી": 6401,
      "લાખું": 6402,
      "ભાયે": 6403,
      "ભાદરે": 6404,
      "કાલા": 6405,
      "કાલિ": 6406,
      "કાદિક": 6407,
      "રહસ્ય": 6408,
      "જોખ": 6409,
      "જોજી": 6410,
      "જોજન": 6411,
      "જોશે": 6412,
      "દાવો": 6413,
      "મોરે": 6414,
      "મોનો": 6415,
      "તોડી": 6416,
      "વીત્યાં": 6417,
      "સ્નેહી": 6418,
      "સાબ": 6419,
      "મુકામ": 6420,
      "મુદ્રિ": 6421,
      "બાઇ": 6422,
      "બાજ": 6423,
      "બાણ": 6424,
      "બાળી": 6425,
      "નોજી": 6426,
      "દીવા": 6427,
      "દ્રે": 6428,
      "દ્વારે": 6429,
      "ષ્ણા": 6430,
      "પરના": 6431,
      "પરલોક": 6432,
      "પરમાનંદ": 6433,
      "પરહરી": 6434,
      "કોટા": 6435,
      "થાઈશ": 6436,
      "આપતા": 6437,
      "આપિયાં": 6438,
      "નાથની": 6439,
      "નાથનો": 6440,
      "એકવાર": 6441,
      "બીડી": 6442,
      "કેત": 6443,
      "કેવું": 6444,
      "કેદિયે": 6445,
      "હાલે": 6446,
      "લોહ": 6447,
      "લોકી": 6448,
      "મીક": 6449,
      "મીઠાં": 6450,
      "બેહાલ": 6451,
      "મનું": 6452,
      "લેર": 6453,
      "સંતના": 6454,
      "સુખના": 6455,
      "સુખાનંદ": 6456,
      "સુખનિધિ": 6457,
      "સુખપાલ": 6458,
      "હેરાણ": 6459,
      "પ્રભુરામ": 6460,
      "પ્રભુનાં": 6461,
      "પુલ": 6462,
      "પુરાણી": 6463,
      "બોરુ": 6464,
      "કૃતાંત": 6465,
      "વાતું": 6466,
      "ધારજ્યો": 6467,
      "ખાઓ": 6468,
      "ખાણ્ય": 6469,
      "ડેલ": 6470,
      "રૂડું": 6471,
      "રામકૃષ્ણ": 6472,
      "રામચંદ": 6473,
      "જાણ્યે": 6474,
      "શોભી": 6475,
      "મૂઠ્ય": 6476,
      "સોળે": 6477,
      "સુંદરવર": 6478,
      "સુંદરિયાણે": 6479,
      "એહનો": 6480,
      "બાઈયો": 6481,
      "તિયાંથી": 6482,
      "ગુના": 6483,
      "ગુર્જર": 6484,
      "ગોવાળ": 6485,
      "ગોળો": 6486,
      "દર્પ": 6487,
      "ખેલે": 6488,
      "ખેતી": 6489,
      "પારિ": 6490,
      "નરપતિ": 6491,
      "પીવું": 6492,
      "રુદ્ર": 6493,
      "દુષ્ટે": 6494,
      "કુકર્": 6495,
      "ભેટ્ય": 6496,
      "ભેળાં": 6497,
      "શ્રીનારાયણ": 6498,
      "શ્રીભગવન": 6499,
      "શ્રીભગવંત": 6500,
      "અનર્થ": 6501,
      "દયાસિંધુ": 6502,
      "શાન": 6503,
      "મારગે": 6504,
      "કૃષ્ણજી": 6505,
      "કોઈનો": 6506,
      "સ્વામીશ્રી": 6507,
      "મળવું": 6508,
      "મળશું": 6509,
      "માનને": 6510,
      "માન્યાં": 6511,
      "માનસિંઘ": 6512,
      "તનધારી": 6513,
      "સ્તા": 6514,
      "હીરુ": 6515,
      "વરસે": 6516,
      "હોમે": 6517,
      "દ્રવ્યે": 6518,
      "RHYME_206334": 6519,
      "સીધું": 6520,
      "ગાલ": 6521,
      "રોમ": 6522,
      "મહારાજના": 6523,
      "ધર્મથી": 6524,
      "ધર્મશાસ્ત્ર": 6525,
      "સમું": 6526,
      "સમજો": 6527,
      "સમરથ": 6528,
      "દ્વિજભક્ત": 6529,
      "શ્યામને": 6530,
      "ધાનંદ": 6531,
      "વિનાશ": 6532,
      "મુનિના": 6533,
      "મુનિઇન્": 6534,
      "RHYME_206889": 6535,
      "ચોથે": 6536,
      "ચોધરી": 6537,
      "ચોતરે": 6538,
      "શિરા": 6539,
      "શિલા": 6540,
      "શિવો": 6541,
      "શિક્ષા": 6542,
      "કાંકરા": 6543,
      "કાંઠે": 6544,
      "વર્ત": 6545,
      "જમણ": 6546,
      "જુદા": 6547,
      "છોગા": 6548,
      "તારામ": 6549,
      "દયાળનાં": 6550,
      "દેવને": 6551,
      "દેવની": 6552,
      "દેવશર્મા": 6553,
      "અલુ": 6554,
      "પધારો": 6555,
      "સતવારો": 6556,
      "અવધિ": 6557,
      "અવતરી": 6558,
      "દુઃખા": 6559,
      "છાયા": 6560,
      "જીવનો": 6561,
      "વસેલ": 6562,
      "જીવનું": 6563,
      "સનકાદિક": 6564,
      "ધોકા": 6565,
      "RHYME_205874": 6566,
      "RHYME_205889": 6567,
      "કંચન": 6568,
      "નારીનો": 6569,
      "રંગી": 6570,
      "રંગભી": 6571,
      "હાથમાં": 6572,
      "વૃત્ત": 6573,
      "વૃન્": 6574,
      "RHYME_207840": 6575,
      "નિરન્ન": 6576,
      "દેહમાં": 6577,
      "દેહની": 6578,
      "સમાસ": 6579,
      "ભોજાઈ": 6580,
      "રાજસી": 6581,
      "રાજારામ": 6582,
      "ભક્તિને": 6583,
      "આંઇ": 6584,
      "RHYME_210875": 6585,
      "RHYME_210889": 6586,
      "બીજાની": 6587,
      "RHYME_208045": 6588,
      "સ્વસ્તિ": 6589,
      "ધામી": 6590,
      "ધામે": 6591,
      "ચાલવા": 6592,
      "ચાલતી": 6593,
      "ચાલશું": 6594,
      "લાલજી": 6595,
      "બ્રહ્મતેજ": 6596,
      "બ્રહ્મસ્વરૂપ": 6597,
      "વાંછ": 6598,
      "વાંચે": 6599,
      "343": 6600,
      "પાળજ્યો": 6601,
      "પિં": 6602,
      "તરું": 6603,
      "RHYME_213195": 6604,
      "RHYME_207103": 6605,
      "રહીશ": 6606,
      "બાળપણામાં": 6607,
      "તુળ": 6608,
      "બોલિયો": 6609,
      "લુહાર": 6610,
      "લુકિ": 6611,
      "વસતા": 6612,
      "વાયદો": 6613,
      "374": 6614,
      "ગ્રહે": 6615,
      "વાસના": 6616,
      "ટાણે": 6617,
      "બંધિ": 6618,
      "ઘોડાં": 6619,
      "લખમી": 6620,
      "RHYME_210029": 6621,
      "સુતની": 6622,
      "RHYME_211011": 6623,
      "ભરત": 6624,
      "ભરપૂર": 6625,
      "ઠોર": 6626,
      "RHYME_211158": 6627,
      "RHYME_212191": 6628,
      "RHYME_212897": 6629,
      "શ્રીકૃષ્ણના": 6630,
      "શ્રીકૃષ્ણનો": 6631,
      "શ્રીકૃષ્ણનું": 6632,
      "ઉપરે": 6633,
      "ઉપકારી": 6634,
      "વિચારો": 6635,
      "RHYME_208559": 6636,
      "સૂક્ષ્મ": 6637,
      "RHYME_211808": 6638,
      "્મત્ત": 6639,
      "સરવેને": 6640,
      "ગઢડામાં": 6641,
      "ઝાલે": 6642,
      "ઝાલ્યા": 6643,
      "ઝાઝે": 6644,
      "નવલ": 6645,
      "નવલા": 6646,
      "ફૂલવાડી": 6647,
      "રસના": 6648,
      "રાખશો": 6649,
      "સિદ્ધે": 6650,
      "RHYME_207341": 6651,
      "અવતારના": 6652,
      "ત્યાગીને": 6653,
      "બાર્યે": 6654,
      "RHYME_212054": 6655,
      "પહેરે": 6656,
      "પહેરામણી": 6657,
      "RHYME_211578": 6658,
      "RHYME_207978": 6659,
      "RHYME_212944": 6660,
      "શ્રીહરિએ": 6661,
      "RHYME_207438": 6662,
      "પાંચો": 6663,
      "RHYME_206745": 6664,
      "ઋષિએ": 6665,
      "ક્રોધી": 6666,
      "મર્યા": 6667,
      "મરવા": 6668,
      "RHYME_205525": 6669,
      "અર્જુન": 6670,
      "RHYME_206468": 6671,
      "નરનારીને": 6672,
      "વર્ણીરાજ": 6673,
      "વર્ણીરાય": 6674,
      "ગમતા": 6675,
      "ગમતી": 6676,
      "જામની": 6677,
      "ડિયાદ": 6678,
      "ગોવિંદભાઈ": 6679,
      "મૂળુ": 6680,
      "થોભણ": 6681,
      "ફેરે": 6682,
      "વેદાં": 6683,
      "RHYME_207724": 6684,
      "RHYME_207731": 6685,
      "RHYME_210337": 6686,
      "ધૂણી": 6687,
      "પૂછ્યા": 6688,
      "ઉત્તરમાં": 6689,
      "મૂર્તિમાન": 6690,
      "માંડણ": 6691,
      "તેજના": 6692,
      "વૈરાગ્યવાન": 6693,
      "વીરજી": 6694,
      "શાસ્ત્રી": 6695,
      "શાસ્ત્રના": 6696,
      "RHYME_210464": 6697,
      "RHYME_211969": 6698,
      "ગણિયે": 6699,
      "સુણશે": 6700,
      "કાનમ": 6701,
      "ગઢડેથી": 6702,
      "ચિંતવી": 6703,
      "ચિંતવતાં": 6704,
      "મૃદંગ": 6705,
      "યુગ": 6706,
      "કાઢ્યા": 6707,
      "પૃહ": 6708,
      "વર્ણવું": 6709,
      "દ્યુ": 6710,
      "તેડાવી": 6711,
      "વિચારીને": 6712,
      "જગન્નાથ": 6713,
      "દૈત્યે": 6714,
      "માતરો": 6715,
      "મનાશે": 6716,
      "સંઘમાં": 6717,
      "સંઘજી": 6718,
      "મુક્તાનંદજીને": 6719,
      "બુદ્ધિવંત": 6720,
      "RHYME_208263": 6721,
      "સૌએ": 6722,
      "RHYME_206931": 6723,
      "RHYME_212761": 6724,
      "RHYME_209468": 6725,
      "દીપમાળા": 6726,
      "પગલાં": 6727,
      "લગીર": 6728,
      "મેઘજી": 6729,
      "માયિક": 6730,
      "ગિરધારી": 6731,
      "પ્રતિપાળે": 6732,
      "અધિકારી": 6733,
      "નિયંતા": 6734,
      "પધરાવિયા": 6735,
      "યોગકળા": 6736,
      "કરાવિયાં": 6737,
      "કરાવિયો": 6738,
      "નમ્ર": 6739,
      "ઊઠ્યો": 6740,
      "ભૂમિનો": 6741,
      "ઉદ્ધવને": 6742,
      "અગનિ": 6743,
      "ખરચી": 6744,
      "જરાસં": 6745,
      "દંભ": 6746,
      "દંભી": 6747,
      "ગોપાળયોગી": 6748,
      "પંચાણ": 6749,
      "પંચાધ્યા": 6750,
      "RHYME_210401": 6751,
      "તીર્થવાસી": 6752,
      "આસપાસે": 6753,
      "જક્તથી": 6754,
      "નાખું": 6755,
      "પુંજોજી": 6756,
      "કમળદળ": 6757,
      "ઢાળી": 6758,
      "ઢાવ્ય": 6759,
      "પ્યાસી": 6760,
      "મુજથી": 6761,
      "વાલમ": 6762,
      "અમરશી": 6763,
      "વામ્યા": 6764,
      "ધ્રૂ": 6765,
      "હનુમંત": 6766,
      "મુરારી": 6767,
      "મહામુ": 6768,
      "નિયમમાં": 6769,
      "નાનબાઈ": 6770,
      "શિરપાવ": 6771,
      "શિરપેચ": 6772,
      "જુવોને": 6773,
      "અરદેશ": 6774,
      "બિંદુ": 6775,
      "બિરુદ": 6776,
      "ભણ્યા": 6777,
      "નીલકંઠે": 6778,
      "દુર્બળ": 6779,
      "જેતલપુરમાં": 6780,
      "વંદન": 6781,
      "વંદુ": 6782,
      "સ્વાદની": 6783,
      "કુબેરજી": 6784,
      "દ્રષ્ટિએ": 6785,
      "ફેરવે": 6786,
      "પુષ્પની": 6787,
      "શર્ણ": 6788,
      "સઘળી": 6789,
      "સઘળા": 6790,
      "સંભારતાં": 6791,
      "આજ્ઞામાં": 6792,
      "અષ્ટમીને": 6793,
      "મુંથી": 6794,
      "ત્રિકમજી": 6795,
      "ળાવવા": 6796,
      "તૃષ્ણા": 6797,
      "ખેવટ": 6798,
      "જુગત્યે": 6799,
      "પિપ્પ": 6800,
      "વિશવાસી": 6801,
      "RHYME_208456": 6802,
      "રાધાકૃષ્ણ": 6803,
      "પરમાત્મા": 6804,
      "વાવરી": 6805,
      "RHYME_207791": 6806,
      "નૃત્ય": 6807,
      "લટકે": 6808,
      "ઉતાર્યા": 6809,
      "ભૂલ્યાં": 6810,
      "ઉત્પત્તિ": 6811,
      "RHYME_205637": 6812,
      "ઉદ્ધારવા": 6813,
      "આચાર્ય": 6814,
      "ઉગારિયા": 6815,
      "RHYME_212508": 6816,
      "RHYME_211458": 6817,
      "કોઈકને": 6818,
      "અન્નકોટનો": 6819,
      "આયુષ": 6820,
      "પદ્મના": 6821,
      "પ્રભાત": 6822,
      "લાડુબાઈ": 6823,
      "શોધીને": 6824,
      "પીરસવા": 6825,
      "શિખામણ્ય": 6826,
      "વ્રજભાઈ": 6827,
      "ધ્રોડ": 6828,
      "કડાકા": 6829,
      "નૈવેદ": 6830,
      "RHYME_208282": 6831,
      "RHYME_208387": 6832,
      "RHYME_211447": 6833,
      "વાહન": 6834,
      "મોતૈયા": 6835,
      "લક્ષમીરામ": 6836,
      "RHYME_208218": 6837,
      "RHYME_210302": 6838,
      "કિંકર": 6839,
      "કિંચિત": 6840,
      "હળવે": 6841,
      "કાયથ": 6842,
      "મોંઘી": 6843,
      "શરણાગત": 6844,
      "અધ્યાસ": 6845,
      "બડભાગી": 6846,
      "બદ્રિકા": 6847,
      "વિરજા": 6848,
      "RHYME_211980": 6849,
      "કસલો": 6850,
      "ચંપા": 6851,
      "સમજાવે": 6852,
      "અપમાન": 6853,
      "પ્રવર્તાવી": 6854,
      "ફેંટો": 6855,
      "મૃગછા": 6856,
      "પિપલાણે": 6857,
      "ખડગ": 6858,
      "માંગરોળ": 6859,
      "RHYME_213204": 6860,
      "જુજવી": 6861,
      "ઝીણોભાઈ": 6862,
      "અશલાલી": 6863,
      "કમાઈ": 6864,
      "ગલાલબાઈ": 6865,
      "જંગમ": 6866,
      "એકાંતે": 6867,
      "પ્રાક્રમે": 6868,
      "પિબૈક": 6869,
      "મનુવાર્ય": 6870,
      "ભયંકર": 6871,
      "ખુશાલે": 6872,
      "અભાગણી": 6873,
      "અશરણશરણ": 6874,
      "ઉછરંગે": 6875,
      "ઉમરેઠે": 6876,
      "નર્મદા": 6877,
      "મથુરા": 6878,
      "ચોંપે": 6879,
      "શિશુપાળ": 6880,
      "પુરુષોત્તમને": 6881,
      "તુલજારામ": 6882,
      "ઝાઝું": 6883,
      "ઇછ્યા": 6884,
      "મલ્લ": 6885,
      "લગ્ન": 6886,
      "વલિભાઈ": 6887,
      "રેંટો": 6888,
      "પ્રહ્‍લાદ": 6889,
      "પરમેશ્વર": 6890,
      "પુણ્યે": 6891,
      "બંધૂકો": 6892,
      "ઘોડલે": 6893,
      "દનુજ": 6894,
      "જિજ્ઞાસુ": 6895,
      "આતમારામ": 6896,
      "હિરણ્યાક્ષ": 6897,
      "અચાનક": 6898,
      "આખ્યાન": 6899,
      "ઉદ્યમ": 6900,
      "એલચી": 6901,
      "કશિપુ": 6902,
      "ડારો": 6903,
      "તદરૂપ": 6904,
      "ભવિષ્ય": 6905,
      "વનિતા": 6906,
      "પ્રશંસા": 6907,
      "રાસમંડ": 6908,
      "કુકર્મી": 6909,
      "મુનિઇન્દ": 6910,
      "રંગભીનો": 6911,
      "ંછ": 6912,
      "ંધ": 6913,
      "ંકાર": 6914,
      "ંકટ": 6915,
      "અચ": 6916,
      "અથ": 6917,
      "અહ": 6918,
      "અછે": 6919,
      "અવિ": 6920,
      "અમો": 6921,
      "અદિ": 6922,
      "અવળી": 6923,
      "અખા": 6924,
      "અંડ": 6925,
      "અરણ": 6926,
      "અક્ર": 6927,
      "અવાય": 6928,
      "અસાધુ": 6929,
      "અધીર": 6930,
      "અજાણ્યું": 6931,
      "અનાડી": 6932,
      "અવિદ્યા": 6933,
      "અષા": 6934,
      "અઠ્યા": 6935,
      "અસ્થિ": 6936,
      "અમાપ": 6937,
      "અધર્મી": 6938,
      "આની": 6939,
      "આડે": 6940,
      "આખી": 6941,
      "આધુ": 6942,
      "આજની": 6943,
      "ઇતિ": 6944,
      "ઉમો": 6945,
      "ઉરુ": 6946,
      "ઉગ્ર": 6947,
      "ઉતરી": 6948,
      "ઉજ્જ": 6949,
      "ઉર્ધ્વ": 6950,
      "ઊગ": 6951,
      "ઊલ": 6952,
      "ઋષભ": 6953,
      "એજ": 6954,
      "એણી": 6955,
      "ઓઘો": 6956,
      "ઓઘટ": 6957,
      "ઔષ": 6958,
      "કથ": 6959,
      "કશ": 6960,
      "કલા": 6961,
      "કબી": 6962,
      "કનું": 6963,
      "કશી": 6964,
      "કસ્ત": 6965,
      "કપૂર": 6966,
      "કશ્ય": 6967,
      "કંડો": 6968,
      "ખત": 6969,
      "ખવા": 6970,
      "ખમે": 6971,
      "ખ્યું": 6972,
      "ખડી": 6973,
      "ખસી": 6974,
      "ખડો": 6975,
      "ખંડી": 6976,
      "ખબડ": 6977,
      "ગારી": 6978,
      "ગગો": 6979,
      "ગયે": 6980,
      "ગિયો": 6981,
      "ગણું": 6982,
      "ગળિયા": 6983,
      "ગ્યાતા": 6984,
      "ઘણ": 6985,
      "ઘું": 6986,
      "ઘરો": 6987,
      "ચલ": 6988,
      "ચમેલી": 6989,
      "ચડ્યાં": 6990,
      "છંદ": 6991,
      "છળે": 6992,
      "જસ": 6993,
      "જશે": 6994,
      "જકે": 6995,
      "જળે": 6996,
      "જશો": 6997,
      "જૈયે": 6998,
      "જરાય": 6999,
      "ઝખ": 7000,
      "ઝિ": 7001,
      "ઝર્ય": 7002,
      "ઠિ": 7003,
      "ડવ": 7004,
      "ડતા": 7005,
      "ડહા": 7006,
      "ડશો": 7007,
      "ડિત": 7008,
      "તટ": 7009,
      "તૂ": 7010,
      "તપા": 7011,
      "તસ્": 7012,
      "તત્": 7013,
      "તિયો": 7014,
      "તજ્યાં": 7015,
      "થ્ય": 7016,
      "થિયો": 7017,
      "થિયાર": 7018,
      "દડ": 7019,
      "દું": 7020,
      "દગે": 7021,
      "દદામા": 7022,
      "દલગીર": 7023,
      "ધડ": 7024,
      "ધમ": 7025,
      "ધલ": 7026,
      "ધ્યું": 7027,
      "નૌ": 7028,
      "નડે": 7029,
      "નિયે": 7030,
      "નભે": 7031,
      "નગ્ર": 7032,
      "પછ": 7033,
      "પળી": 7034,
      "પચા": 7035,
      "પડો": 7036,
      "પસ્તા": 7037,
      "ફલ": 7038,
      "ફલજી": 7039,
      "બતા": 7040,
      "બહો": 7041,
      "બજારે": 7042,
      "બતાવી": 7043,
      "બામણો": 7044,
      "ભ્ય": 7045,
      "ભરા": 7046,
      "ભમે": 7047,
      "ભડે": 7048,
      "ભવર": 7049,
      "ભરો": 7050,
      "ભવાન": 7051,
      "ભલાં": 7052,
      "ભક્તે": 7053,
      "મર્": 7054,
      "મકે": 7055,
      "મલો": 7056,
      "મલે": 7057,
      "મટે": 7058,
      "મકરા": 7059,
      "મચી": 7060,
      "મફર": 7061,
      "મૈય": 7062,
      "મસ્તિ": 7063,
      "યમ": 7064,
      "યતિ": 7065,
      "રટ": 7066,
      "રિયાં": 7067,
      "રક્ષ": 7068,
      "રિયે": 7069,
      "રથે": 7070,
      "રંક": 7071,
      "રૈયો": 7072,
      "લમાં": 7073,
      "લગે": 7074,
      "લામાં": 7075,
      "ળામાં": 7076,
      "વઢ": 7077,
      "વદ": 7078,
      "વહ": 7079,
      "વરે": 7080,
      "વતિ": 7081,
      "વતા": 7082,
      "વજો": 7083,
      "વલી": 7084,
      "વશિ": 7085,
      "વધ્યા": 7086,
      "વલભ": 7087,
      "વરુણ": 7088,
      "શૈ": 7089,
      "શાં": 7090,
      "શિયાં": 7091,
      "શવો": 7092,
      "શિયું": 7093,
      "ષુ": 7094,
      "ષે": 7095,
      "સને": 7096,
      "સલા": 7097,
      "સમો": 7098,
      "સખે": 7099,
      "સઠ્ય": 7100,
      "હવા": 7101,
      "હવી": 7102,
      "હસ્તિ": 7103,
      "હજૂર": 7104,
      "હથિયાર": 7105,
      "ાઈ": 7106,
      "ાત્રેય": 7107,
      "િએ": 7108,
      "ૂન": 7109,
      "ૃષ્ટિ": 7110,
      "ોગ": 7111,
      "ોતા": 7112,
      "ોરો": 7113,
      "્ને": 7114,
      "ૐકાર": 7115,
      "રેખ": 7116,
      "રેણ": 7117,
      "રેણી": 7118,
      "નેશ": 7119,
      "્યાય": 7120,
      "તેં": 7121,
      "તેય": 7122,
      "તેડ્યે": 7123,
      "વાણે": 7124,
      "વાનર": 7125,
      "વાઘે": 7126,
      "વાણ્ય": 7127,
      "વાલું": 7128,
      "કરિયાં": 7129,
      "કરિયે": 7130,
      "કરવાં": 7131,
      "કરગરી": 7132,
      "કરિયાણે": 7133,
      "કરભામી": 7134,
      "જેસો": 7135,
      "જેઠા": 7136,
      "RHYME_20675": 7137,
      "RHYME_206956": 7138,
      "RHYME_206473": 7139,
      "RHYME_206412": 7140,
      "RHYME_206472": 7141,
      "RHYME_206276": 7142,
      "RHYME_206997": 7143,
      "RHYME_206943": 7144,
      "નાળી": 7145,
      "નાગા": 7146,
      "નાટ્ય": 7147,
      "માલે": 7148,
      "માજમ": 7149,
      "માંહે": 7150,
      "પ્રિય": 7151,
      "પ્રતી": 7152,
      "પ્રક્ર": 7153,
      "પ્રધાન": 7154,
      "પ્રાંતિ": 7155,
      "પ્રવૃત્તિ": 7156,
      "પ્રાર્": 7157,
      "પ્રહરી": 7158,
      "પ્રતાપી": 7159,
      "પ્રયાગ": 7160,
      "કહ્યે": 7161,
      "જીવા": 7162,
      "જીતા": 7163,
      "જીવ્યા": 7164,
      "વેવાર": 7165,
      "વેગળ": 7166,
      "વેચાણ": 7167,
      "જનક": 7168,
      "જાછ": 7169,
      "જાપર": 7170,
      "જાડી": 7171,
      "જાતું": 7172,
      "જાગ્ર": 7173,
      "વિવા": 7174,
      "વિત્ત": 7175,
      "વિશા": 7176,
      "વિસર": 7177,
      "વિક્ર": 7178,
      "વિલોક": 7179,
      "વિરમ": 7180,
      "વિલખી": 7181,
      "વિગ્રહ": 7182,
      "વિપત્તિ": 7183,
      "વિજયા": 7184,
      "વિચરે": 7185,
      "વિપરે": 7186,
      "વિભાગે": 7187,
      "વિજાપર": 7188,
      "સુતે": 7189,
      "સુવા": 7190,
      "સુધાર": 7191,
      "રાગી": 7192,
      "રાધિ": 7193,
      "રાવળ": 7194,
      "રાડ્ય": 7195,
      "સંકો": 7196,
      "સંશે": 7197,
      "સંગા": 7198,
      "સંસ્કાર": 7199,
      "નીચ": 7200,
      "નીસરી": 7201,
      "આવતી": 7202,
      "RHYME_207619": 7203,
      "RHYME_207942": 7204,
      "RHYME_207473": 7205,
      "RHYME_207672": 7206,
      "RHYME_207955": 7207,
      "RHYME_207952": 7208,
      "હર્યા": 7209,
      "હરણી": 7210,
      "હરખ્યા": 7211,
      "હરગોવિંદ": 7212,
      "હરૂપ": 7213,
      "હુવા": 7214,
      "હુવો": 7215,
      "મેલા": 7216,
      "RHYME_20833": 7217,
      "RHYME_208619": 7218,
      "RHYME_208412": 7219,
      "RHYME_208373": 7220,
      "RHYME_208242": 7221,
      "RHYME_208673": 7222,
      "RHYME_208272": 7223,
      "RHYME_208292": 7224,
      "પાછ": 7225,
      "પાષ": 7226,
      "પાટી": 7227,
      "પાછાં": 7228,
      "નિમા": 7229,
      "નિદ્રા": 7230,
      "RHYME_20961": 7231,
      "RHYME_20964": 7232,
      "RHYME_20933": 7233,
      "RHYME_209619": 7234,
      "RHYME_209981": 7235,
      "RHYME_209229": 7236,
      "RHYME_209473": 7237,
      "RHYME_209656": 7238,
      "RHYME_209992": 7239,
      "RHYME_209271": 7240,
      "RHYME_209655": 7241,
      "ભક્તવત્સ": 7242,
      "ભક્તચિંતામણિ": 7243,
      "હરિરામ": 7244,
      "હરિજીને": 7245,
      "દેખો": 7246,
      "RHYME_210956": 7247,
      "RHYME_210222": 7248,
      "RHYME_210474": 7249,
      "લાઈ": 7250,
      "લાલે": 7251,
      "ભાતે": 7252,
      "ભાયો": 7253,
      "ંદર": 7254,
      "કાચ": 7255,
      "કાવી": 7256,
      "કાણો": 7257,
      "કાગળે": 7258,
      "કાછિયા": 7259,
      "RHYME_21220": 7260,
      "RHYME_21228": 7261,
      "RHYME_212946": 7262,
      "RHYME_212999": 7263,
      "RHYME_212654": 7264,
      "RHYME_21126": 7265,
      "RHYME_21161": 7266,
      "RHYME_21148": 7267,
      "RHYME_21193": 7268,
      "RHYME_21135": 7269,
      "RHYME_211229": 7270,
      "RHYME_211658": 7271,
      "RHYME_211242": 7272,
      "RHYME_211666": 7273,
      "જોતા": 7274,
      "જોવું": 7275,
      "જોધો": 7276,
      "જોરાણ": 7277,
      "જોબને": 7278,
      "દાઈ": 7279,
      "દાવન": 7280,
      "દાધાર": 7281,
      "RHYME_20535": 7282,
      "RHYME_205476": 7283,
      "RHYME_205981": 7284,
      "RHYME_205673": 7285,
      "RHYME_205471": 7286,
      "મોલ": 7287,
      "મોડા": 7288,
      "તોલે": 7289,
      "વીસ": 7290,
      "વીત્યું": 7291,
      "સ્વાર": 7292,
      "સ્કં": 7293,
      "સ્પતિ": 7294,
      "સ્કંદ": 7295,
      "સાજો": 7296,
      "સાનંદ": 7297,
      "સાડી": 7298,
      "સાટા": 7299,
      "સાધ્ય": 7300,
      "સાઠ્યે": 7301,
      "મુદા": 7302,
      "મુકાવે": 7303,
      "રીસ": 7304,
      "રીઝી": 7305,
      "બાવો": 7306,
      "બાહેર": 7307,
      "દીએ": 7308,
      "ષ્ઠા": 7309,
      "પરુ": 7310,
      "પરામ": 7311,
      "પરસા": 7312,
      "પરલોકે": 7313,
      "પરમાર્": 7314,
      "RHYME_213243": 7315,
      "RHYME_213475": 7316,
      "RHYME_213273": 7317,
      "કોલ": 7318,
      "કોટી": 7319,
      "ારાનંદ": 7320,
      "થાતાં": 7321,
      "આપજ્યો": 7322,
      "આપણો": 7323,
      "ચાડ": 7324,
      "ચાળી": 7325,
      "નાથુ": 7326,
      "લીજે": 7327,
      "લીબાઈ": 7328,
      "ડીએ": 7329,
      "ડીને": 7330,
      "કેરા": 7331,
      "કેવી": 7332,
      "કેનો": 7333,
      "કેશે": 7334,
      "કેલો": 7335,
      "કેતાં": 7336,
      "કેતુ": 7337,
      "કેવડા": 7338,
      "કેસરી": 7339,
      "હાટ": 7340,
      "લોભા": 7341,
      "લોમો": 7342,
      "મીં": 7343,
      "મીન": 7344,
      "મીઠે": 7345,
      "મીસરી": 7346,
      "આવ્યાનું": 7347,
      "બેકે": 7348,
      "બેસો": 7349,
      "મનને": 7350,
      "મનનું": 7351,
      "મનવાર": 7352,
      "મનવાંછ": 7353,
      "લેકે": 7354,
      "લેવાને": 7355,
      "ક્મિ": 7356,
      "પોત્યા": 7357,
      "સેના": 7358,
      "દરશ": 7359,
      "સુખને": 7360,
      "સુખમય": 7361,
      "નામિયું": 7362,
      "હેતુ": 7363,
      "ક્ષણ": 7364,
      "ક્ષત્રિય": 7365,
      "સર્વેના": 7366,
      "બોળાં": 7367,
      "બોલાય": 7368,
      "બોલાવિયા": 7369,
      "કૃષિ": 7370,
      "વાતનો": 7371,
      "ધાર્યાં": 7372,
      "ધારણામાં": 7373,
      "ખાણી": 7374,
      "ખાસુર": 7375,
      "ખારેક": 7376,
      "શ્રોતા": 7377,
      "દાસના": 7378,
      "દાસની": 7379,
      "દાસનાં": 7380,
      "રૂગનાથ": 7381,
      "રામપુરે": 7382,
      "શીમાં": 7383,
      "મહંત": 7384,
      "જાણવા": 7385,
      "જાણ્યાં": 7386,
      "જાણશે": 7387,
      "જાણશો": 7388,
      "ંતી": 7389,
      "યોજી": 7390,
      "ધનુષ": 7391,
      "શોચ": 7392,
      "મૂઠ": 7393,
      "મૂર્": 7394,
      "મૂળી": 7395,
      "મૂક્યાં": 7396,
      "તીતાનંદ": 7397,
      "સોનાં": 7398,
      "સોરંગે": 7399,
      "તેહનો": 7400,
      "બાઈએ": 7401,
      "બાઈઓ": 7402,
      "ખીમજી": 7403,
      "ગુમાન": 7404,
      "ગુચ્છ": 7405,
      "ગુપ્ત": 7406,
      "ધીન": 7407,
      "ધીશ": 7408,
      "સ્વાભાવિક": 7409,
      "ભાઈચંદ": 7410,
      "ગોકુલ": 7411,
      "ખેત": 7412,
      "ડાવી": 7413,
      "ડાબે": 7414,
      "ડાબાં": 7415,
      "પારકું": 7416,
      "પારષદ": 7417,
      "નરસિંહ": 7418,
      "નરસઇ": 7419,
      "રુચિ": 7420,
      "રુક્મિ": 7421,
      "દુલભ": 7422,
      "વોરો": 7423,
      "સારસ": 7424,
      "ળાનંદે": 7425,
      "કુરુ": 7426,
      "કુકર્મ": 7427,
      "શ્રીરંગ": 7428,
      "શ્રીફળ": 7429,
      "શ્રીમહારાજની": 7430,
      "શ્રીકૃષ્ણે": 7431,
      "અનાર": 7432,
      "અનંતા": 7433,
      "અન્ને": 7434,
      "શાને": 7435,
      "શાપે": 7436,
      "શાદુલ": 7437,
      "મારશે": 7438,
      "મારશું": 7439,
      "દર્શનને": 7440,
      "ચરચા": 7441,
      "ઠાકર": 7442,
      "સ્વામીનાં": 7443,
      "મળજ્યો": 7444,
      "માનબાઈ": 7445,
      "તનભાન": 7446,
      "હીરજી": 7447,
      "વરત્યો": 7448,
      "વરસાત": 7449,
      "પેઠે": 7450,
      "પેઠ્ય": 7451,
      "હોઈ": 7452,
      "હોજ": 7453,
      "હોમ": 7454,
      "પામવા": 7455,
      "પામતા": 7456,
      "RHYME_206393": 7457,
      "RHYME_206331": 7458,
      "RHYME_206307": 7459,
      "સીમ": 7460,
      "સીમા": 7461,
      "ગારે": 7462,
      "ગાતે": 7463,
      "ગાવે": 7464,
      "ગાનંદ": 7465,
      "ગાજિ": 7466,
      "રોમાં": 7467,
      "રોળી": 7468,
      "ભૂં": 7469,
      "ભૂંડી": 7470,
      "ભૂમિયે": 7471,
      "ધર્મવાન": 7472,
      "ધર્મપુર": 7473,
      "ધર્મકુળ": 7474,
      "સમૈયે": 7475,
      "ભગવને": 7476,
      "ભગિની": 7477,
      "હરિજનનો": 7478,
      "હરિજનનું": 7479,
      "ધાઈ": 7480,
      "ધાયા": 7481,
      "વિનાની": 7482,
      "મુનિનાં": 7483,
      "RHYME_206826": 7484,
      "RHYME_206877": 7485,
      "RHYME_206861": 7486,
      "RHYME_206835": 7487,
      "RHYME_206822": 7488,
      "RHYME_206899": 7489,
      "RHYME_206887": 7490,
      "RHYME_206852": 7491,
      "RHYME_206842": 7492,
      "RHYME_206810": 7493,
      "ધિક": 7494,
      "આદિત": 7495,
      "કાંચી": 7496,
      "જમશે": 7497,
      "જમશું": 7498,
      "જમિયે": 7499,
      "જમદૂત": 7500,
      "જુક્ત": 7501,
      "સિત": 7502,
      "સિંગ": 7503,
      "તાર્યો": 7504,
      "RHYME_206120": 7505,
      "RHYME_206169": 7506,
      "RHYME_206123": 7507,
      "RHYME_206147": 7508,
      "RHYME_206138": 7509,
      "RHYME_206108": 7510,
      "RHYME_206187": 7511,
      "RHYME_206146": 7512,
      "RHYME_206103": 7513,
      "ચિબુ": 7514,
      "સરલ": 7515,
      "સરજૂ": 7516,
      "કામાં": 7517,
      "દેવબાઈ": 7518,
      "દેવચંદ": 7519,
      "દેવળિયે": 7520,
      "અલિ": 7521,
      "અલૈયે": 7522,
      "પધારિયે": 7523,
      "અવધ": 7524,
      "દોવટે": 7525,
      "છાનો": 7526,
      "છાયો": 7527,
      "છાયે": 7528,
      "છાદન": 7529,
      "જીવત": 7530,
      "વૈદ્ય": 7531,
      "પ્રકટના": 7532,
      "ખોટ": 7533,
      "ખોજા": 7534,
      "ખોળી": 7535,
      "ખોટે": 7536,
      "RHYME_209163": 7537,
      "RHYME_209150": 7538,
      "RHYME_209147": 7539,
      "RHYME_209135": 7540,
      "RHYME_209134": 7541,
      "RHYME_209164": 7542,
      "RHYME_209106": 7543,
      "RHYME_209104": 7544,
      "RHYME_209116": 7545,
      "ત્રીજે": 7546,
      "ત્રીશે": 7547,
      "RHYME_205877": 7548,
      "RHYME_205879": 7549,
      "RHYME_205823": 7550,
      "RHYME_205822": 7551,
      "RHYME_205854": 7552,
      "RHYME_205880": 7553,
      "RHYME_205805": 7554,
      "સાંભળ્યા": 7555,
      "સાંભળ્યાં": 7556,
      "કંપે": 7557,
      "કંઠી": 7558,
      "કંબુ": 7559,
      "કંસારો": 7560,
      "ડોસા": 7561,
      "શુક્ર": 7562,
      "લઈશ": 7563,
      "કરાનંદ": 7564,
      "દુઃખમાં": 7565,
      "દુઃખિયાં": 7566,
      "રંગમાં": 7567,
      "રંગભર": 7568,
      "રંગરેલ": 7569,
      "સામાન": 7570,
      "સામગરી": 7571,
      "સામગ્રી": 7572,
      "હાથથી": 7573,
      "વૃંતા": 7574,
      "વૃષભ": 7575,
      "ધુવા": 7576,
      "RHYME_207863": 7577,
      "RHYME_207850": 7578,
      "RHYME_207825": 7579,
      "RHYME_207868": 7580,
      "RHYME_207853": 7581,
      "RHYME_207862": 7582,
      "RHYME_207802": 7583,
      "RHYME_207814": 7584,
      "RHYME_207801": 7585,
      "કુંભ": 7586,
      "કુંવરી": 7587,
      "નિરમો": 7588,
      "નિરધન": 7589,
      "નિરલોભી": 7590,
      "અમટ": 7591,
      "અમરો": 7592,
      "નિજકામ": 7593,
      "નિજજનને": 7594,
      "સમાની": 7595,
      "કાળની": 7596,
      "ભોઈ": 7597,
      "ભોજને": 7598,
      "રાજગર": 7599,
      "RHYME_210870": 7600,
      "RHYME_210823": 7601,
      "RHYME_210896": 7602,
      "RHYME_210843": 7603,
      "RHYME_210812": 7604,
      "RHYME_210817": 7605,
      "RHYME_208048": 7606,
      "RHYME_208027": 7607,
      "RHYME_208093": 7608,
      "RHYME_208090": 7609,
      "RHYME_208024": 7610,
      "RHYME_208008": 7611,
      "RHYME_208022": 7612,
      "RHYME_208065": 7613,
      "RHYME_208096": 7614,
      "RHYME_208007": 7615,
      "RHYME_208015": 7616,
      "લીલાધર": 7617,
      "તમમાં": 7618,
      "સ્વચ્છ": 7619,
      "હાર્ય": 7620,
      "હાર્યા": 7621,
      "RHYME_210191": 7622,
      "RHYME_210193": 7623,
      "RHYME_210190": 7624,
      "RHYME_210187": 7625,
      "RHYME_210146": 7626,
      "RHYME_210110": 7627,
      "RHYME_210186": 7628,
      "ચાલ્યું": 7629,
      "લોકથી": 7630,
      "RHYME_206091": 7631,
      "RHYME_206040": 7632,
      "RHYME_206021": 7633,
      "RHYME_206065": 7634,
      "RHYME_206029": 7635,
      "RHYME_206004": 7636,
      "RHYME_206007": 7637,
      "ભાવતાં": 7638,
      "ભાવશું": 7639,
      "મુખની": 7640,
      "RHYME_207063": 7641,
      "RHYME_207026": 7642,
      "RHYME_207090": 7643,
      "RHYME_207099": 7644,
      "RHYME_207064": 7645,
      "RHYME_207076": 7646,
      "RHYME_207000": 7647,
      "RHYME_207006": 7648,
      "RHYME_207002": 7649,
      "RHYME_207014": 7650,
      "RHYME_207004": 7651,
      "નારાય": 7652,
      "સાથને": 7653,
      "બ્રહ્મપુર": 7654,
      "વાંકી": 7655,
      "પ્રભુજીએ": 7656,
      "પ્રભુજીના": 7657,
      "પ્રભુજીનાં": 7658,
      "ગરવા": 7659,
      "જમાડવા": 7660,
      "જમાડ્યાં": 7661,
      "RHYME_206554": 7662,
      "પાળો": 7663,
      "પિપર": 7664,
      "ઇચ્છું": 7665,
      "તરવાર": 7666,
      "ધરું": 7667,
      "RHYME_213190": 7668,
      "RHYME_213199": 7669,
      "RHYME_213119": 7670,
      "RHYME_213146": 7671,
      "RHYME_213101": 7672,
      "લાગશે": 7673,
      "RHYME_207177": 7674,
      "RHYME_207145": 7675,
      "RHYME_207168": 7676,
      "RHYME_207147": 7677,
      "RHYME_207166": 7678,
      "RHYME_207189": 7679,
      "RHYME_207100": 7680,
      "RHYME_207106": 7681,
      "RHYME_207136": 7682,
      "નારાયણને": 7683,
      "નારાયણમુનિ": 7684,
      "657": 7685,
      "659": 7686,
      "પુરુષે": 7687,
      "પુરુષને": 7688,
      "પુરુષનાં": 7689,
      "બાળકે": 7690,
      "સતસંગીએ": 7691,
      "જ્ઞાનંદ": 7692,
      "RHYME_209821": 7693,
      "RHYME_209894": 7694,
      "RHYME_209833": 7695,
      "RHYME_209832": 7696,
      "RHYME_209887": 7697,
      "RHYME_209872": 7698,
      "RHYME_209888": 7699,
      "RHYME_209025": 7700,
      "RHYME_209044": 7701,
      "RHYME_209027": 7702,
      "લુજી": 7703,
      "વસ્યા": 7704,
      "વસમી": 7705,
      "વસવું": 7706,
      "372": 7707,
      "જગજીવને": 7708,
      "જગદાધાર": 7709,
      "RHYME_208163": 7710,
      "RHYME_208121": 7711,
      "RHYME_208198": 7712,
      "RHYME_208199": 7713,
      "RHYME_208137": 7714,
      "RHYME_208197": 7715,
      "RHYME_208159": 7716,
      "RHYME_208110": 7717,
      "RHYME_208139": 7718,
      "RHYME_208112": 7719,
      "RHYME_208188": 7720,
      "ભીતર": 7721,
      "ભીંતર": 7722,
      "વળ્યો": 7723,
      "ગુણવંત": 7724,
      "ગુણવાળા": 7725,
      "બંધી": 7726,
      "પાવનનાં": 7727,
      "અંતે": 7728,
      "અંબુ": 7729,
      "અંધારી": 7730,
      "ઘોડો": 7731,
      "લખુ": 7732,
      "લખ્યે": 7733,
      "મૂરતિમાન": 7734,
      "RHYME_210061": 7735,
      "RHYME_210045": 7736,
      "RHYME_210091": 7737,
      "RHYME_210093": 7738,
      "RHYME_210022": 7739,
      "RHYME_210064": 7740,
      "RHYME_210054": 7741,
      "RHYME_210072": 7742,
      "RHYME_210043": 7743,
      "RHYME_210046": 7744,
      "RHYME_210058": 7745,
      "RHYME_210042": 7746,
      "RHYME_210049": 7747,
      "RHYME_210002": 7748,
      "RHYME_210001": 7749,
      "RHYME_207530": 7750,
      "RHYME_207598": 7751,
      "RHYME_207562": 7752,
      "RHYME_207556": 7753,
      "RHYME_211041": 7754,
      "RHYME_211052": 7755,
      "RHYME_211014": 7756,
      "દઈને": 7757,
      "ભરતજી": 7758,
      "ભરવાડ": 7759,
      "RHYME_211163": 7760,
      "RHYME_211161": 7761,
      "RHYME_211187": 7762,
      "RHYME_211113": 7763,
      "RHYME_211181": 7764,
      "હેતનાં": 7765,
      "અનુક્ર": 7766,
      "મહાદુઃખ": 7767,
      "મહાદીક્ષા": 7768,
      "નીરખે": 7769,
      "વ્રતે": 7770,
      "વ્રતાનંદ": 7771,
      "RHYME_212120": 7772,
      "RHYME_212124": 7773,
      "RHYME_212175": 7774,
      "RHYME_212159": 7775,
      "RHYME_212100": 7776,
      "RHYME_212102": 7777,
      "RHYME_212825": 7778,
      "RHYME_212831": 7779,
      "RHYME_212889": 7780,
      "RHYME_212873": 7781,
      "નિર્વાહ": 7782,
      "નિર્લેપ": 7783,
      "ઉપહાસ": 7784,
      "ઘાવ": 7785,
      "RHYME_208599": 7786,
      "RHYME_208529": 7787,
      "RHYME_208587": 7788,
      "RHYME_208549": 7789,
      "RHYME_208582": 7790,
      "પડિયું": 7791,
      "સૂઝે": 7792,
      "RHYME_211878": 7793,
      "RHYME_211872": 7794,
      "RHYME_211804": 7795,
      "ચેલો": 7796,
      "RHYME_208840": 7797,
      "RHYME_208898": 7798,
      "RHYME_208894": 7799,
      "RHYME_208875": 7800,
      "RHYME_208846": 7801,
      "RHYME_208880": 7802,
      "RHYME_208811": 7803,
      "અસુરની": 7804,
      "અસુરનું": 7805,
      "ઠેરાવી": 7806,
      "ગઢવી": 7807,
      "ગઢડું": 7808,
      "ઝાળ": 7809,
      "ઝાલો": 7810,
      "ફૂલની": 7811,
      "દીનપ્રતિપાળ": 7812,
      "રસિયા": 7813,
      "રસરૂપ": 7814,
      "રાખું": 7815,
      "રાખતા": 7816,
      "RHYME_207326": 7817,
      "RHYME_207328": 7818,
      "RHYME_207340": 7819,
      "RHYME_207338": 7820,
      "RHYME_207394": 7821,
      "RHYME_207335": 7822,
      "RHYME_207375": 7823,
      "RHYME_207364": 7824,
      "RHYME_207362": 7825,
      "RHYME_207397": 7826,
      "RHYME_207329": 7827,
      "RHYME_208378": 7828,
      "RHYME_208325": 7829,
      "RHYME_208345": 7830,
      "RHYME_208340": 7831,
      "RHYME_208371": 7832,
      "RHYME_208337": 7833,
      "743": 7834,
      "બાંયે": 7835,
      "RHYME_206968": 7836,
      "બારો": 7837,
      "RHYME_206206": 7838,
      "RHYME_210540": 7839,
      "RHYME_210522": 7840,
      "RHYME_210552": 7841,
      "RHYME_210543": 7842,
      "RHYME_210546": 7843,
      "RHYME_210556": 7844,
      "RHYME_212079": 7845,
      "RHYME_212070": 7846,
      "RHYME_212060": 7847,
      "RHYME_212075": 7848,
      "RHYME_212074": 7849,
      "RHYME_212096": 7850,
      "RHYME_212004": 7851,
      "પહેલા": 7852,
      "ભારત": 7853,
      "આવ્યાંતાં": 7854,
      "RHYME_211550": 7855,
      "RHYME_211579": 7856,
      "RHYME_211587": 7857,
      "RHYME_206639": 7858,
      "RHYME_207922": 7859,
      "RHYME_207964": 7860,
      "RHYME_212951": 7861,
      "RHYME_212948": 7862,
      "ધીરજ": 7863,
      "ધીરજ્યે": 7864,
      "RHYME_206505": 7865,
      "RHYME_207463": 7866,
      "RHYME_207491": 7867,
      "RHYME_207427": 7868,
      "RHYME_207431": 7869,
      "વિપ્રજન": 7870,
      "RHYME_205978": 7871,
      "RHYME_205941": 7872,
      "RHYME_205947": 7873,
      "RHYME_205975": 7874,
      "RHYME_205929": 7875,
      "કળિ": 7876,
      "RHYME_206768": 7877,
      "RHYME_206739": 7878,
      "RHYME_208750": 7879,
      "RHYME_208741": 7880,
      "RHYME_208764": 7881,
      "RHYME_208732": 7882,
      "પૂરણચંદ": 7883,
      "બ્રહ્માનંદ": 7884,
      "ઋષિને": 7885,
      "લાંચ": 7886,
      "RHYME_213426": 7887,
      "RHYME_213467": 7888,
      "ઊતર્યો": 7889,
      "જમેલ": 7890,
      "RHYME_209350": 7891,
      "RHYME_209345": 7892,
      "RHYME_209344": 7893,
      "RHYME_209331": 7894,
      "RHYME_209335": 7895,
      "RHYME_209365": 7896,
      "RHYME_205526": 7897,
      "RHYME_205548": 7898,
      "સતસંગનો": 7899,
      "પંચવ્રત": 7900,
      "RHYME_213028": 7901,
      "RHYME_213053": 7902,
      "RHYME_213095": 7903,
      "RHYME_213018": 7904,
      "RHYME_206462": 7905,
      "RHYME_206497": 7906,
      "તાતની": 7907,
      "શંકા": 7908,
      "શંખાસુર": 7909,
      "વાલોજી": 7910,
      "જામા": 7911,
      "જામફળ": 7912,
      "જામફળી": 7913,
      "RHYME_211277": 7914,
      "RHYME_211244": 7915,
      "RHYME_211228": 7916,
      "શીખજ્યો": 7917,
      "ભયથી": 7918,
      "RHYME_208426": 7919,
      "RHYME_208431": 7920,
      "RHYME_208492": 7921,
      "RHYME_205426": 7922,
      "RHYME_205460": 7923,
      "વેદના": 7924,
      "RHYME_207745": 7925,
      "RHYME_207734": 7926,
      "RHYME_207766": 7927,
      "RHYME_210325": 7928,
      "મોરમુગટ": 7929,
      "પરચાનો": 7930,
      "બુદ્ધજી": 7931,
      "ખુશી": 7932,
      "ફરિયા": 7933,
      "ફરકી": 7934,
      "ફરક્યાં": 7935,
      "ધૂડ્ય": 7936,
      "RHYME_209561": 7937,
      "RHYME_209569": 7938,
      "RHYME_209590": 7939,
      "RHYME_209549": 7940,
      "RHYME_209582": 7941,
      "પૂછવા": 7942,
      "પૂછવું": 7943,
      "ત્યાગ્યું": 7944,
      "RHYME_206771": 7945,
      "RHYME_209761": 7946,
      "RHYME_209769": 7947,
      "RHYME_209723": 7948,
      "RHYME_209728": 7949,
      "RHYME_209753": 7950,
      "RHYME_209732": 7951,
      "RHYME_212650": 7952,
      "RHYME_212661": 7953,
      "RHYME_212641": 7954,
      "RHYME_213345": 7955,
      "RHYME_213323": 7956,
      "RHYME_213331": 7957,
      "RHYME_213399": 7958,
      "પુંજ": 7959,
      "માંડવી": 7960,
      "પૂરવ": 7961,
      "આશારામ": 7962,
      "ઇન્દિરા": 7963,
      "ગાયત્રી": 7964,
      "વાળવા": 7965,
      "વાળિયે": 7966,
      "RHYME_210438": 7967,
      "RHYME_211979": 7968,
      "RHYME_211930": 7969,
      "RHYME_211991": 7970,
      "RHYME_211993": 7971,
      "RHYME_211924": 7972,
      "સ્તુભ": 7973,
      "મનુષ્યને": 7974,
      "મનુષ્યનું": 7975,
      "ક્રોધે": 7976,
      "ગણપત": 7977,
      "RHYME_206220": 7978,
      "RHYME_206225": 7979,
      "RHYME_206244": 7980,
      "RHYME_206228": 7981,
      "RHYME_206248": 7982,
      "માથેથી": 7983,
      "RHYME_208677": 7984,
      "RHYME_208625": 7985,
      "RHYME_208668": 7986,
      "RHYME_208670": 7987,
      "RHYME_208940": 7988,
      "RHYME_212326": 7989,
      "RHYME_212323": 7990,
      "RHYME_212331": 7991,
      "RHYME_212371": 7992,
      "શાલવ": 7993,
      "ચિત્તમાં": 7994,
      "મંગલ": 7995,
      "સ્થળે": 7996,
      "RHYME_206681": 7997,
      "RHYME_207244": 7998,
      "RHYME_207270": 7999,
      "RHYME_207228": 8000,
      "RHYME_207293": 8001,
      "RHYME_207641": 8002,
      "RHYME_207644": 8003,
      "RHYME_207624": 8004,
      "ભાગ્યો": 8005,
      "રહ્યાંતાં": 8006,
      "RHYME_205735": 8007,
      "મૃગાજિ": 8008,
      "શ્વરે": 8009,
      "કૈવ": 8010,
      "RHYME_206262": 8011,
      "RHYME_206269": 8012,
      "RHYME_206511": 8013,
      "RHYME_206519": 8014,
      "એકાદશ": 8015,
      "રાજાએ": 8016,
      "RHYME_210969": 8017,
      "વર્ણન": 8018,
      "જણાવી": 8019,
      "જણાણા": 8020,
      "માનીશ": 8021,
      "તેડાવો": 8022,
      "RHYME_211350": 8023,
      "RHYME_211394": 8024,
      "RHYME_211396": 8025,
      "વર્ષો": 8026,
      "વર્ષાત": 8027,
      "ઠામે": 8028,
      "ફાળ": 8029,
      "ફાડી": 8030,
      "તેડવાને": 8031,
      "માતરા": 8032,
      "તજવા": 8033,
      "તજિયું": 8034,
      "મનાવ્યું": 8035,
      "મુક્તાનંદજીએ": 8036,
      "RHYME_206650": 8037,
      "RHYME_206670": 8038,
      "RHYME_206648": 8039,
      "RHYME_206627": 8040,
      "RHYME_206653": 8041,
      "RHYME_206622": 8042,
      "શિવને": 8043,
      "એટલાં": 8044,
      "ન્યૂન": 8045,
      "કર્જિ": 8046,
      "કર્મયોગી": 8047,
      "RHYME_206251": 8048,
      "RHYME_208279": 8049,
      "RHYME_208225": 8050,
      "પૃથુ": 8051,
      "ભજીયે": 8052,
      "જીવોને": 8053,
      "જૂના": 8054,
      "જૂઠા": 8055,
      "વહેંચી": 8056,
      "આરાં": 8057,
      "આરત્ય": 8058,
      "RHYME_212763": 8059,
      "RHYME_212769": 8060,
      "RHYME_212727": 8061,
      "RHYME_212738": 8062,
      "RHYME_212767": 8063,
      "RHYME_211650": 8064,
      "RHYME_211670": 8065,
      "RHYME_211628": 8066,
      "RHYME_211627": 8067,
      "RHYME_211667": 8068,
      "ડ્યમાં": 8069,
      "રાખીશ": 8070,
      "RHYME_212420": 8071,
      "RHYME_212424": 8072,
      "RHYME_212417": 8073,
      "RHYME_212418": 8074,
      "ત્રિલોક": 8075,
      "ત્રિલોકમાં": 8076,
      "પ્રસાદીનું": 8077,
      "RHYME_206706": 8078,
      "જન્મ્યા": 8079,
      "RHYME_208306": 8080,
      "RHYME_209424": 8081,
      "RHYME_209422": 8082,
      "દીપમાળ": 8083,
      "આશ્રય": 8084,
      "ભવસાગર": 8085,
      "RHYME_212692": 8086,
      "RHYME_212694": 8087,
      "RHYME_212695": 8088,
      "RHYME_212699": 8089,
      "RHYME_205626": 8090,
      "RHYME_205665": 8091,
      "ગાંજા": 8092,
      "ગાંગજી": 8093,
      "ઝીં": 8094,
      "ઝીણે": 8095,
      "હર્ખ": 8096,
      "RHYME_209990": 8097,
      "RHYME_205511": 8098,
      "RHYME_205514": 8099,
      "કવિએ": 8100,
      "શૂન્ય": 8101,
      "માગિયે": 8102,
      "માગશર": 8103,
      "RHYME_211725": 8104,
      "RHYME_211727": 8105,
      "RHYME_211722": 8106,
      "RHYME_213084": 8107,
      "RHYME_213089": 8108,
      "કલંગી": 8109,
      "નદીએ": 8110,
      "માતાએ": 8111,
      "માતાજીને": 8112,
      "RHYME_205340": 8113,
      "RHYME_205347": 8114,
      "કરાવિયે": 8115,
      "રૂપાળા": 8116,
      "ઊઠિયા": 8117,
      "રતનબાઈ": 8118,
      "શરદ": 8119,
      "નિશદિન": 8120,
      "RHYME_211461": 8121,
      "RHYME_211421": 8122,
      "ઉચ્ચાટ": 8123,
      "ખર્યો": 8124,
      "દંપતિ": 8125,
      "મંત્રનો": 8126,
      "RHYME_208902": 8127,
      "પાનબીડી": 8128,
      "રીતશું": 8129,
      "ગોપાળસ્વામી": 8130,
      "RHYME_210402": 8131,
      "RHYME_210404": 8132,
      "પુણ્યનો": 8133,
      "પુણ્યવાન": 8134,
      "અવલબાઈ": 8135,
      "નાખશે": 8136,
      "RHYME_211532": 8137,
      "RHYME_211536": 8138,
      "RHYME_211538": 8139,
      "આંહીંથી": 8140,
      "કમળશી": 8141,
      "વાલ્યમે": 8142,
      "વાલ્યમો": 8143,
      "વાડીમાં": 8144,
      "માંહોમાંહે": 8145,
      "પાણીમાં": 8146,
      "RHYME_209227": 8147,
      "દ્વારકા": 8148,
      "RHYME_213307": 8149,
      "RHYME_213308": 8150,
      "બેરખા": 8151,
      "અમરબાઈ": 8152,
      "આણ્યું": 8153,
      "પહેર્યો": 8154,
      "RHYME_209628": 8155,
      "RHYME_209648": 8156,
      "RHYME_209647": 8157,
      "RHYME_210267": 8158,
      "સૂર્યને": 8159,
      "આદરું": 8160,
      "RHYME_213417": 8161,
      "RHYME_213419": 8162,
      "કેટલાં": 8163,
      "પૂર્વે": 8164,
      "ચાંચ": 8165,
      "ચાંદલો": 8166,
      "નથુભાઈ": 8167,
      "નાગડકે": 8168,
      "વિધવા": 8169,
      "મહામંત્ર": 8170,
      "મોરાર્ય": 8171,
      "મોરારજી": 8172,
      "પનંગ": 8173,
      "RHYME_207612": 8174,
      "RHYME_207617": 8175,
      "RHYME_209700": 8176,
      "દેખ્યું": 8177,
      "દેખતાં": 8178,
      "RHYME_213480": 8179,
      "જ્ઞાનાનંદ": 8180,
      "અજબ": 8181,
      "અરજણ": 8182,
      "ઊંટ": 8183,
      "ઊંડી": 8184,
      "ભણવા": 8185,
      "ભણિયે": 8186,
      "કહેવાઇ": 8187,
      "અમૃતબાઈ": 8188,
      "વિદ્યાવાન": 8189,
      "ફેરવી": 8190,
      "વિષ્ણુયાગ": 8191,
      "કઠારી": 8192,
      "કૌસ્તુભ": 8193,
      "પટરાણી": 8194,
      "RHYME_208614": 8195,
      "RHYME_210228": 8196,
      "RHYME_213354": 8197,
      "પહોંચ": 8198,
      "પહોંચે": 8199,
      "લક્ષણે": 8200,
      "હૃદ": 8201,
      "હરખજી": 8202,
      "હરખિયા": 8203,
      "હરખિયાં": 8204,
      "મોટેરે": 8205,
      "શિરોમણી": 8206,
      "બાળકને": 8207,
      "નિષ્કુળાનંદે": 8208,
      "ગર્જ": 8209,
      "ગર્વ": 8210,
      "સદ્‍ગુરુ": 8211,
      "સદ્‍મતિ": 8212,
      "RHYME_206788": 8213,
      "RHYME_209688": 8214,
      "RHYME_212244": 8215,
      "RHYME_212223": 8216,
      "RHYME_212227": 8217,
      "શાપથી": 8218,
      "છાંય": 8219,
      "મહિમાય": 8220,
      "મહિષા": 8221,
      "RHYME_206796": 8222,
      "RHYME_208455": 8223,
      "RHYME_208485": 8224,
      "RHYME_208486": 8225,
      "RHYME_210202": 8226,
      "RHYME_210204": 8227,
      "RHYME_210205": 8228,
      "RHYME_212780": 8229,
      "RHYME_212786": 8230,
      "શોભતા": 8231,
      "શોભિત": 8232,
      "કચ્છદેશ": 8233,
      "ગણીજે": 8234,
      "રાધાપતિ": 8235,
      "RHYME_207200": 8236,
      "RHYME_207202": 8237,
      "RHYME_207208": 8238,
      "RHYME_208264": 8239,
      "RHYME_208267": 8240,
      "RHYME_208255": 8241,
      "RHYME_208259": 8242,
      "RHYME_209770": 8243,
      "RHYME_209773": 8244,
      "RHYME_209776": 8245,
      "RHYME_209912": 8246,
      "RHYME_209914": 8247,
      "RHYME_209916": 8248,
      "RHYME_209917": 8249,
      "RHYME_212302": 8250,
      "RHYME_212701": 8251,
      "RHYME_211782": 8252,
      "RHYME_211784": 8253,
      "RHYME_211788": 8254,
      "RHYME_211382": 8255,
      "RHYME_211386": 8256,
      "દિનેશ": 8257,
      "સ્પર્શે": 8258,
      "RHYME_213269": 8259,
      "સમીપ": 8260,
      "સમીર": 8261,
      "RHYME_207794": 8262,
      "RHYME_207795": 8263,
      "RHYME_207797": 8264,
      "સંતદાસજી": 8265,
      "નૃપ": 8266,
      "ભણીએ": 8267,
      "જાળિયે": 8268,
      "RHYME_209280": 8269,
      "RHYME_209282": 8270,
      "RHYME_209988": 8271,
      "પૃથ્વીએ": 8272,
      "ઉતારો": 8273,
      "દત્તાત્રેય": 8274,
      "ભવાનીદાસ": 8275,
      "ભવાનીશંકર": 8276,
      "કેશરબાઈ": 8277,
      "ઝૂલ્યા": 8278,
      "નજડિત": 8279,
      "વસંતપંચમી": 8280,
      "RHYME_206210": 8281,
      "RHYME_206212": 8282,
      "RHYME_206215": 8283,
      "RHYME_206216": 8284,
      "RHYME_207269": 8285,
      "RHYME_207481": 8286,
      "RHYME_207488": 8287,
      "RHYME_209635": 8288,
      "RHYME_205639": 8289,
      "RHYME_205910": 8290,
      "RHYME_205989": 8291,
      "મુકાય": 8292,
      "RHYME_213400": 8293,
      "સુરતથી": 8294,
      "ગ્રહણ": 8295,
      "ગ્રહ્યું": 8296,
      "અસુરાણ": 8297,
      "ઉતાવળું": 8298,
      "ઉગારિયો": 8299,
      "ચૂકે": 8300,
      "લૂંટી": 8301,
      "શિયાલ": 8302,
      "સહેવાય": 8303,
      "ાર્ણ": 8304,
      "જીતવા": 8305,
      "RHYME_207698": 8306,
      "RHYME_207716": 8307,
      "RHYME_212507": 8308,
      "RHYME_211454": 8309,
      "RHYME_211459": 8310,
      "RHYME_205402": 8311,
      "ભૂખણ": 8312,
      "ભામા": 8313,
      "ભામિની": 8314,
      "RHYME_206443": 8315,
      "RHYME_206448": 8316,
      "RHYME_206604": 8317,
      "RHYME_206605": 8318,
      "RHYME_206606": 8319,
      "RHYME_207900": 8320,
      "RHYME_208631": 8321,
      "RHYME_208632": 8322,
      "RHYME_208202": 8323,
      "RHYME_208912": 8324,
      "RHYME_210775": 8325,
      "RHYME_210905": 8326,
      "RHYME_210717": 8327,
      "RHYME_210718": 8328,
      "RHYME_212238": 8329,
      "RHYME_212405": 8330,
      "RHYME_212409": 8331,
      "RHYME_211235": 8332,
      "RHYME_211236": 8333,
      "RHYME_211511": 8334,
      "બાલશર્મા": 8335,
      "નરકમાં": 8336,
      "માર્ગ": 8337,
      "સરિખા": 8338,
      "ધ્રોડી": 8339,
      "રત્નજડિત": 8340,
      "શણગારી": 8341,
      "RHYME_210696": 8342,
      "કાલવાણી": 8343,
      "RHYME_212637": 8344,
      "પૂન્યમને": 8345,
      "સોંપ": 8346,
      "વ્યાપ્યો": 8347,
      "વૈષ્ણવ": 8348,
      "પિયાસ": 8349,
      "રઘુનાથ": 8350,
      "વરાવે": 8351,
      "હસતાં": 8352,
      "કહાવો": 8353,
      "RHYME_207633": 8354,
      "RHYME_207634": 8355,
      "RHYME_207602": 8356,
      "RHYME_207603": 8357,
      "RHYME_208447": 8358,
      "RHYME_209451": 8359,
      "RHYME_209695": 8360,
      "RHYME_209696": 8361,
      "RHYME_209698": 8362,
      "RHYME_209600": 8363,
      "RHYME_209609": 8364,
      "RHYME_210630": 8365,
      "RHYME_210601": 8366,
      "RHYME_210933": 8367,
      "RHYME_212088": 8368,
      "RHYME_212758": 8369,
      "RHYME_211212": 8370,
      "RHYME_205538": 8371,
      "ત્રોડે": 8372,
      "RHYME_213349": 8373,
      "અવનિએ": 8374,
      "નારણજી": 8375,
      "જમુનાને": 8376,
      "અભિલા": 8377,
      "અભિરામ": 8378,
      "ખંડન": 8379,
      "ઝાંઝ": 8380,
      "મહેશ": 8381,
      "RHYME_206612": 8382,
      "RHYME_208603": 8383,
      "RHYME_208608": 8384,
      "RHYME_208985": 8385,
      "RHYME_209264": 8386,
      "RHYME_209307": 8387,
      "મહોર": 8388,
      "શ્રીરામપ્રતાપ": 8389,
      "અંબાબાઈ": 8390,
      "ગુજરાતમાં": 8391,
      "અનાથના": 8392,
      "કમિયાળે": 8393,
      "જંઘા": 8394,
      "લંપટી": 8395,
      "વંશી": 8396,
      "જીજીબાઈ": 8397,
      "વેણીભાઈ": 8398,
      "RHYME_207980": 8399,
      "RHYME_208411": 8400,
      "RHYME_208414": 8401,
      "RHYME_209513": 8402,
      "RHYME_209315": 8403,
      "કાપ્યું": 8404,
      "કાપ્યાં": 8405,
      "કાયર": 8406,
      "RHYME_212771": 8407,
      "RHYME_212313": 8408,
      "RHYME_205613": 8409,
      "RHYME_205790": 8410,
      "RHYME_205900": 8411,
      "RHYME_213384": 8412,
      "RHYME_213385": 8413,
      "આણંદજી": 8414,
      "બડભાગ્ય": 8415,
      "બદ્રિપતિ": 8416,
      "મસ્તક": 8417,
      "વજાડે": 8418,
      "વામનજી": 8419,
      "વિરક્ત": 8420,
      "સંતાઈ": 8421,
      "RHYME_211202": 8422,
      "RHYME_211986": 8423,
      "વરષે": 8424,
      "અનુરાગી": 8425,
      "સ્વર્ગલોક": 8426,
      "અજુભાઈ": 8427,
      "અકળાય": 8428,
      "ફોમ": 8429,
      "હણ્યો": 8430,
      "RHYME_206411": 8431,
      "RHYME_206418": 8432,
      "RHYME_207506": 8433,
      "RHYME_208682": 8434,
      "RHYME_208688": 8435,
      "RHYME_208696": 8436,
      "RHYME_209081": 8437,
      "RHYME_209088": 8438,
      "RHYME_209354": 8439,
      "RHYME_209355": 8440,
      "RHYME_210413": 8441,
      "RHYME_212516": 8442,
      "RHYME_212935": 8443,
      "RHYME_211503": 8444,
      "RHYME_211509": 8445,
      "RHYME_211255": 8446,
      "RHYME_211257": 8447,
      "RHYME_211693": 8448,
      "RHYME_211719": 8449,
      "RHYME_205447": 8450,
      "RHYME_213444": 8451,
      "સોમલો": 8452,
      "ભૂધરદાસ": 8453,
      "આંબલે": 8454,
      "ઓળખાણ": 8455,
      "ઓળખાણ્ય": 8456,
      "અમદાવાદમાં": 8457,
      "અગાધ": 8458,
      "અગાશી": 8459,
      "ઉછાવ": 8460,
      "મામો": 8461,
      "મત્સર": 8462,
      "જેસંગભાઈ": 8463,
      "RHYME_206694": 8464,
      "પ્રવર્તા": 8465,
      "ગ્રીવ": 8466,
      "વ્યાપકાનંદજી": 8467,
      "આલ્યાં": 8468,
      "ઉઘાડી": 8469,
      "ચડોતર": 8470,
      "ડર્યા": 8471,
      "વસુધા": 8472,
      "માંગરોળે": 8473,
      "સંઘાથે": 8474,
      "RHYME_207359": 8475,
      "RHYME_208936": 8476,
      "RHYME_209485": 8477,
      "RHYME_212357": 8478,
      "RHYME_211631": 8479,
      "RHYME_211637": 8480,
      "RHYME_211688": 8481,
      "RHYME_211400": 8482,
      "RHYME_213206": 8483,
      "RHYME_213280": 8484,
      "કેવળરામ": 8485,
      "પાર્ષદ": 8486,
      "જુજવાં": 8487,
      "અલબેલાને": 8488,
      "સ્વપ્નામાં": 8489,
      "અળગા": 8490,
      "ઉપાસક": 8491,
      "ઝળકે": 8492,
      "ડંઢાવ્ય": 8493,
      "ભગુજી": 8494,
      "યૂથ": 8495,
      "રસોયો": 8496,
      "હઠીભાઈ": 8497,
      "નિહાળી": 8498,
      "નિશાણ": 8499,
      "મોકલ્યો": 8500,
      "મોકલ્યું": 8501,
      "યોગેશ્વર": 8502,
      "ભોગવે": 8503,
      "ભયંકાર": 8504,
      "મંગાવ્યો": 8505,
      "રામાનુજના": 8506,
      "આરોપ્યા": 8507,
      "જેતપર": 8508,
      "RHYME_207218": 8509,
      "RHYME_210759": 8510,
      "RHYME_212618": 8511,
      "RHYME_212538": 8512,
      "RHYME_211796": 8513,
      "RHYME_211906": 8514,
      "હિમાચળ": 8515,
      "મુકુંદ": 8516,
      "મુકુંદાનંદ": 8517,
      "બોચાસણ": 8518,
      "બોચાસણે": 8519,
      "મૂંઝા": 8520,
      "ગોંડળ": 8521,
      "વર્ણાશ્ર": 8522,
      "વર્ણાશ્રમ": 8523,
      "બુરાનપુરમાં": 8524,
      "ઉન્મત્ત": 8525,
      "પ્રણામ": 8526,
      "વિરોધ": 8527,
      "RHYME_207087": 8528,
      "મેળાપ": 8529,
      "હિરણ્યકશિપુ": 8530,
      "મુકુટ": 8531,
      "મૂલચંદ": 8532,
      "ગુણાતીત": 8533,
      "ડાકણી": 8534,
      "અષ્ટાક્ષર": 8535,
      "કૌલાર્ણ": 8536,
      "ગૃહસ્થ": 8537,
      "લૂંટે": 8538,
      "અસંખ્ય": 8539,
      "આકાશે": 8540,
      "આથમ્યો": 8541,
      "કમંડલું": 8542,
      "પૈસા": 8543,
      "ફણેણી": 8544,
      "યદુપતિ": 8545,
      "સંસ્કૃત": 8546,
      "સંપન્ન": 8547,
      "RHYME_207346": 8548,
      "મેમદાવાદ": 8549,
      "RHYME_208316": 8550,
      "RHYME_209401": 8551,
      "RHYME_211306": 8552,
      "RHYME_211081": 8553,
      "RHYME_211436": 8554,
      "દિગપાળ": 8555,
      "ગેહેરી": 8556,
      "ભોંયે": 8557,
      "પતિતપાવન": 8558,
      "બ્રહ્માંડે": 8559,
      "સ્થૂળ": 8560,
      "બૃહસ્પતિ": 8561,
      "કડવો": 8562,
      "તયાર": 8563,
      "દદુકે": 8564,
      "કાલિદત્ત": 8565,
      "જોખન": 8566,
      "મુદ્રિકા": 8567,
      "સ્વામીશ્રીજીને": 8568,
      "વૃન્દાવન": 8569,
      "તુળસી": 8570,
      "નમ્રતા": 8571,
      "જરાસંધ": 8572,
      "પંચાધ્યાય": 8573,
      "નૈવેદ્ય": 8574,
      "ભવિષ્યનું": 8575,
      "અહલ્યા": 8576,
      "અવિચળ": 8577,
      "અરણ્યે": 8578,
      "આધુઈ": 8579,
      "કબીરિયા": 8580,
      "કશ્યપ": 8581,
      "ખબડદાર": 8582,
      "ઘરોઘર": 8583,
      "ડહાપણ": 8584,
      "તસ્કર": 8585,
      "પસ્તાપ": 8586,
      "ભવરોગ": 8587,
      "પ્રાર્થના": 8588,
      "જીતાય": 8589,
      "જાગ્રત": 8590,
      "રાધિકા": 8591,
      "RHYME_209611": 8592,
      "RHYME_209646": 8593,
      "RHYME_212280": 8594,
      "સ્કંધ": 8595,
      "પરમાર્થી": 8596,
      "કેલોદ": 8597,
      "મનવાંછિત": 8598,
      "રુક્મિણી": 8599,
      "અનંતાનંદ": 8600,
      "ચિબુક": 8601,
      "સ્વચ્છંદ": 8602,
      "મૃગાજિન": 8603,
      "ંશી": 8604,
      "ંકી": 8605,
      "ંચે": 8606,
      "અલા": 8607,
      "અમુ": 8608,
      "અડે": 8609,
      "અશન": 8610,
      "અસો": 8611,
      "અચર": 8612,
      "અઠા": 8613,
      "અસંગી": 8614,
      "અજય": 8615,
      "અનિત્ય": 8616,
      "અભી": 8617,
      "અઘા": 8618,
      "અજ્ઞાન": 8619,
      "અધૂ": 8620,
      "અપંગ": 8621,
      "અઢા": 8622,
      "અપરિ": 8623,
      "અશેષ": 8624,
      "અદોષ": 8625,
      "અચેત": 8626,
      "અચ્ય": 8627,
      "આચ": 8628,
      "આથ": 8629,
      "આભ": 8630,
      "આરે": 8631,
      "આહુ": 8632,
      "આદે": 8633,
      "આહિ": 8634,
      "આખો": 8635,
      "આતમ": 8636,
      "આલોક": 8637,
      "આડાં": 8638,
      "આડું": 8639,
      "આંતર": 8640,
      "આટલા": 8641,
      "આજનાં": 8642,
      "ઇયે": 8643,
      "ઇક્ષુ": 8644,
      "ઉમા": 8645,
      "ઉદે": 8646,
      "ઉકા": 8647,
      "ઉગો": 8648,
      "ઉદો": 8649,
      "ઉમરા": 8650,
      "ઉદય": 8651,
      "ઉતારું": 8652,
      "ઉઠ્યા": 8653,
      "ઉલં": 8654,
      "ઊડી": 8655,
      "ઊંડો": 8656,
      "એકર": 8657,
      "એભલ": 8658,
      "ઓપી": 8659,
      "ઓચર": 8660,
      "ઓકાર": 8661,
      "ઓછું": 8662,
      "ઓટા": 8663,
      "ઓછાયે": 8664,
      "ઔર્": 8665,
      "કફ": 8666,
      "ક્યો": 8667,
      "કપુ": 8668,
      "કટે": 8669,
      "કનાં": 8670,
      "કમાન": 8671,
      "કિયો": 8672,
      "કચ્": 8673,
      "કલુ": 8674,
      "કડિયો": 8675,
      "કદળી": 8676,
      "ખપ": 8677,
      "ખરે": 8678,
      "ખર્": 8679,
      "ખારી": 8680,
      "ખભે": 8681,
      "ખમ્યા": 8682,
      "ગને": 8683,
      "ગરા": 8684,
      "ગ્યું": 8685,
      "ગલી": 8686,
      "ગરામ": 8687,
      "ગણા": 8688,
      "ગમાન": 8689,
      "ગવૈ": 8690,
      "ગડાં": 8691,
      "ઘડા": 8692,
      "ઘઉં": 8693,
      "ચઢ": 8694,
      "ચળી": 8695,
      "ચલા": 8696,
      "ચૂર": 8697,
      "છુ": 8698,
      "છરા": 8699,
      "છૈયે": 8700,
      "છઠ્ય": 8701,
      "જત": 8702,
      "જતિ": 8703,
      "જશુ": 8704,
      "જડ્યો": 8705,
      "ઝં": 8706,
      "ઝરી": 8707,
      "ઝરૂ": 8708,
      "ઝટો": 8709,
      "ટ્યાં": 8710,
      "ઠણ": 8711,
      "ઠલ": 8712,
      "ઠિયે": 8713,
      "ડશ": 8714,
      "ડરા": 8715,
      "ડકા": 8716,
      "ડતાં": 8717,
      "ડડુ": 8718,
      "ડરાવે": 8719,
      "ઢુ": 8720,
      "ઢ્ય": 8721,
      "ણ્યા": 8722,
      "તળ": 8723,
      "તર્": 8724,
      "તજા": 8725,
      "તળાવે": 8726,
      "થર": 8727,
      "થલ": 8728,
      "થળી": 8729,
      "થિયાં": 8730,
      "થૂંક": 8731,
      "દ્યો": 8732,
      "દારા": 8733,
      "દશે": 8734,
      "દડે": 8735,
      "દલાં": 8736,
      "દદામાં": 8737,
      "ધના": 8738,
      "ધવરા": 8739,
      "નમા": 8740,
      "નવિ": 8741,
      "નક્ષ": 8742,
      "નવર": 8743,
      "નકાર": 8744,
      "નડ્યા": 8745,
      "પક": 8746,
      "પત્ય": 8747,
      "પયા": 8748,
      "પથી": 8749,
      "પરી": 8750,
      "પદી": 8751,
      "પદર": 8752,
      "પથો": 8753,
      "પળાવે": 8754,
      "ફઈ": 8755,
      "ફતો": 8756,
      "ફામાં": 8757,
      "ફગવા": 8758,
      "બ્ય": 8759,
      "બરે": 8760,
      "બું": 8761,
      "બણે": 8762,
      "બલો": 8763,
      "બદર": 8764,
      "બતી": 8765,
      "બિયે": 8766,
      "બદ્ર": 8767,
      "બિયો": 8768,
      "બદલ": 8769,
      "બકોર": 8770,
      "બદરી": 8771,
      "બગડે": 8772,
      "ભમ": 8773,
      "ભડા": 8774,
      "ભરાઈ": 8775,
      "ભદ્રા": 8776,
      "ભૃંગ": 8777,
      "ભમ્યા": 8778,
      "ભજાવી": 8779,
      "મજ": 8780,
      "મમ": 8781,
      "મ્": 8782,
      "મતો": 8783,
      "મલી": 8784,
      "મિયાં": 8785,
      "મળા": 8786,
      "મશા": 8787,
      "મઘર": 8788,
      "મદ્‍": 8789,
      "મદિરા": 8790,
      "મજ્જા": 8791,
      "યશો": 8792,
      "રક": 8793,
      "રને": 8794,
      "રવા": 8795,
      "રમો": 8796,
      "રડી": 8797,
      "રયો": 8798,
      "રટે": 8799,
      "રતુ": 8800,
      "રચી": 8801,
      "રષા": 8802,
      "રગનાથ": 8803,
      "રચ્યું": 8804,
      "લક": 8805,
      "લડ": 8806,
      "લલ": 8807,
      "લિયા": 8808,
      "લબાઈ": 8809,
      "લલુ": 8810,
      "લયું": 8811,
      "લભાનંદ": 8812,
      "લડથ": 8813,
      "લજ્જા": 8814,
      "ળજી": 8815,
      "ળ્યાં": 8816,
      "વઉ": 8817,
      "વય": 8818,
      "વજે": 8819,
      "વનો": 8820,
      "વદર": 8821,
      "વદાસ": 8822,
      "વશું": 8823,
      "વદ્ર": 8824,
      "વધામ": 8825,
      "વદને": 8826,
      "વસ્થા": 8827,
      "વધ્યો": 8828,
      "વળાવવા": 8829,
      "શમ": 8830,
      "શલે": 8831,
      "શકટ": 8832,
      "શક્ર": 8833,
      "શચી": 8834,
      "ષમ": 8835,
      "સદ": 8836,
      "સના": 8837,
      "સતા": 8838,
      "સડે": 8839,
      "સગો": 8840,
      "સદન": 8841,
      "સરાજ": 8842,
      "સકળ": 8843,
      "સબળ": 8844,
      "સત્તર": 8845,
      "સમૂળો": 8846,
      "સત્તા": 8847,
      "સૃષ્ટિ": 8848,
      "સગરામ": 8849,
      "સબલો": 8850,
      "હશો": 8851,
      "હવું": 8852,
      "હળા": 8853,
      "હવ્ય": 8854,
      "હવિષ": 8855,
      "હઠિ": 8856,
      "િલ": 8857,
      "િતા": 8858,
      "િરામ": 8859,
      "ુત": 8860,
      "ુદ્ર": 8861,
      "ૂટ": 8862,
      "ૂરી": 8863,
      "ૈયું": 8864,
      "ોત્ર": 8865,
      "ૌપદી": 8866,
      "્ગ": 8867,
      "્થ": 8868,
      "્મીક": 8869,
      "રેશ": 8870,
      "રેલી": 8871,
      "રેડે": 8872,
      "નેક": 8873,
      "્યામી": 8874,
      "્યાન્ન": 8875,
      "તેહુ": 8876,
      "તેડે": 8877,
      "તેડ્યો": 8878,
      "તેત્રીશ": 8879,
      "વામે": 8880,
      "વાલી": 8881,
      "વાસો": 8882,
      "વાવર": 8883,
      "વાડો": 8884,
      "વાકળ": 8885,
      "વાલિ": 8886,
      "વામના": 8887,
      "વાધ્યું": 8888,
      "કરામ": 8889,
      "કરણી": 8890,
      "કરિયા": 8891,
      "કરતો": 8892,
      "કરિયો": 8893,
      "કરિયું": 8894,
      "કરજ્યે": 8895,
      "કરમશી": 8896,
      "ર્ણ": 8897,
      "જેટ": 8898,
      "જેહિ": 8899,
      "જેટલું": 8900,
      "RHYME_206673": 8901,
      "RHYME_206746": 8902,
      "નાક": 8903,
      "નાદ": 8904,
      "નાખો": 8905,
      "નાડો": 8906,
      "નાવ્યો": 8907,
      "નાવિયા": 8908,
      "નાવડે": 8909,
      "છેરા": 8910,
      "માઘ": 8911,
      "માનિ": 8912,
      "માથા": 8913,
      "માળે": 8914,
      "માગ્ય": 8915,
      "માલિ": 8916,
      "માદળ": 8917,
      "માંદા": 8918,
      "માંદો": 8919,
      "માંસારી": 8920,
      "માંગળ": 8921,
      "પ્રથ": 8922,
      "પ્રો": 8923,
      "પ્રાર": 8924,
      "પ્રહર": 8925,
      "પ્રવી": 8926,
      "પ્રષ્ણ": 8927,
      "પ્રત્યા": 8928,
      "પ્રપંચ": 8929,
      "પ્રસ્થ": 8930,
      "પ્રદેશમાં": 8931,
      "પ્રભાત્ય": 8932,
      "પ્રકર્ણ": 8933,
      "પ્રદ્યુ": 8934,
      "પ્રકટે": 8935,
      "કહિયે": 8936,
      "જીભ": 8937,
      "જીરણ": 8938,
      "જીયાં": 8939,
      "વેળ": 8940,
      "વેદી": 8941,
      "વેરો": 8942,
      "વેલુ": 8943,
      "વેચે": 8944,
      "વેત્તા": 8945,
      "જનું": 8946,
      "જનશું": 8947,
      "જનાર્": 8948,
      "જાટ": 8949,
      "જાનું": 8950,
      "જાળે": 8951,
      "જાચાર": 8952,
      "જાલ્ય": 8953,
      "જાવાને": 8954,
      "વિદ": 8955,
      "વિરહ": 8956,
      "વિદેશ": 8957,
      "વિરાજી": 8958,
      "વિમાને": 8959,
      "વિસારો": 8960,
      "વિભાગ": 8961,
      "વિચારે": 8962,
      "વિસરી": 8963,
      "વિચર્યા": 8964,
      "વિગત્ય": 8965,
      "વિલોકી": 8966,
      "સુથ": 8967,
      "સુલ": 8968,
      "સુણા": 8969,
      "સુધા": 8970,
      "સુણિ": 8971,
      "સુવાગ": 8972,
      "સુકાઈ": 8973,
      "સુદેવાનંદ": 8974,
      "સુષુ": 8975,
      "રાતાં": 8976,
      "રાઘો": 8977,
      "રાત્રિ": 8978,
      "રાચ્યા": 8979,
      "સંઘે": 8980,
      "સંઘો": 8981,
      "સંદેશો": 8982,
      "નીપ": 8983,
      "નીતિ": 8984,
      "આવડે": 8985,
      "આવશો": 8986,
      "આવ્યે": 8987,
      "હર્યો": 8988,
      "હરતા": 8989,
      "હરિયાં": 8990,
      "હરદાસ": 8991,
      "હરબાઈ": 8992,
      "હરખે": 8993,
      "હરષે": 8994,
      "મેઉ": 8995,
      "મેળ": 8996,
      "મેવા": 8997,
      "મેતા": 8998,
      "મેરામ": 8999,
      "મેમાન": 9000,
      "મેલું": 9001,
      "મેખલા": 9002,
      "RHYME_208674": 9003,
      "RHYME_208249": 9004,
      "પાચ": 9005,
      "પાજ": 9006,
      "પાળી": 9007,
      "પાકી": 9008,
      "પાડો": 9009,
      "પાઘડી": 9010,
      "પાખંડી": 9011,
      "પાછેરા": 9012,
      "તાજ": 9013,
      "તાજી": 9014,
      "નિસર": 9015,
      "નિમિ": 9016,
      "નિવૃત્તિ": 9017,
      "નિવાસાનંદ": 9018,
      "RHYME_209243": 9019,
      "હરિમાં": 9020,
      "હરિરૂપ": 9021,
      "દેવું": 9022,
      "દેગામે": 9023,
      "દેહાનંદ": 9024,
      "RHYME_210619": 9025,
      "લાળ": 9026,
      "લાની": 9027,
      "લાદિ": 9028,
      "લાધી": 9029,
      "ભાજી": 9030,
      "ભાણી": 9031,
      "ભાલે": 9032,
      "ભાવન": 9033,
      "ભાળે": 9034,
      "ભાવો": 9035,
      "ભાદ્ર": 9036,
      "ભાભી": 9037,
      "કાગ": 9038,
      "કાણ": 9039,
      "કાયા": 9040,
      "કાલી": 9041,
      "કાકુ": 9042,
      "કાવ્યા": 9043,
      "કાષ્ટ": 9044,
      "કાચી": 9045,
      "કાલું": 9046,
      "કાથો": 9047,
      "કાષ્ઠ": 9048,
      "કાતુર": 9049,
      "કાયોજી": 9050,
      "યાત્રા": 9051,
      "કરીતી": 9052,
      "જોગ": 9053,
      "જોત્ય": 9054,
      "જોયો": 9055,
      "જોડ્યે": 9056,
      "જોગણી": 9057,
      "હિને": 9058,
      "હિતે": 9059,
      "હિરા": 9060,
      "હિલો": 9061,
      "હિમત્ય": 9062,
      "દાતા": 9063,
      "દાણા": 9064,
      "દાડ્ય": 9065,
      "દાઝે": 9066,
      "દાગરી": 9067,
      "દાખું": 9068,
      "દાદુર": 9069,
      "RHYME_205615": 9070,
      "RHYME_205473": 9071,
      "મોજ": 9072,
      "મોકો": 9073,
      "મોડે": 9074,
      "મોળા": 9075,
      "મોઢે": 9076,
      "મોનજી": 9077,
      "દિત": 9078,
      "દિનું": 9079,
      "ણીને": 9080,
      "તોતો": 9081,
      "તોયે": 9082,
      "તોરંગ": 9083,
      "કહેતા": 9084,
      "વીરે": 9085,
      "સ્વર": 9086,
      "સ્વેદ": 9087,
      "સાલ": 9088,
      "સાજે": 9089,
      "સાપર": 9090,
      "સાટે": 9091,
      "સાકાર": 9092,
      "સાવર્": 9093,
      "સાભર": 9094,
      "સાધને": 9095,
      "મુવે": 9096,
      "મુનિયો": 9097,
      "રીઝ": 9098,
      "રીતિ": 9099,
      "બાને": 9100,
      "બાલા": 9101,
      "બાકી": 9102,
      "બાપે": 9103,
      "બાબર": 9104,
      "નોખું": 9105,
      "નોતરું": 9106,
      "દીકરી": 9107,
      "દીવી": 9108,
      "દીઠે": 9109,
      "દીજિયે": 9110,
      "નંદલાલ": 9111,
      "પરણા": 9112,
      "પરવત": 9113,
      "પરતાપે": 9114,
      "પરત્રિયા": 9115,
      "પરભાત": 9116,
      "પરોક્ષ": 9117,
      "પરઉપકારી": 9118,
      "કોક": 9119,
      "કોઠ": 9120,
      "કોડ": 9121,
      "કોણે": 9122,
      "કોયે": 9123,
      "કોકિ": 9124,
      "કોઠાર": 9125,
      "કોવિદ": 9126,
      "સહુનું": 9127,
      "સહુશું": 9128,
      "થાળે": 9129,
      "થાતું": 9130,
      "આપ્ય": 9131,
      "આપિયે": 9132,
      "ચાવી": 9133,
      "ચાતુર": 9134,
      "શેર": 9135,
      "લીયે": 9136,
      "એકલ": 9137,
      "એકતા": 9138,
      "એકસો": 9139,
      "એકલું": 9140,
      "બીના": 9141,
      "કેય": 9142,
      "કેશી": 9143,
      "કેરો": 9144,
      "કેવાય": 9145,
      "કેફે": 9146,
      "કેવાળિયે": 9147,
      "હાજો": 9148,
      "હાસે": 9149,
      "લોઢ": 9150,
      "લોપે": 9151,
      "લોયે": 9152,
      "લોમશ": 9153,
      "ભુર": 9154,
      "ભુવા": 9155,
      "ભુજા": 9156,
      "બહુવિધિ": 9157,
      "બહુવિધ": 9158,
      "બેને": 9159,
      "બેચરે": 9160,
      "મન્ય": 9161,
      "મનનો": 9162,
      "મનમાંય": 9163,
      "મનસૂ": 9164,
      "મનમોહન": 9165,
      "લેલ": 9166,
      "લેશો": 9167,
      "લેવાય": 9168,
      "લેહ્ય": 9169,
      "ંગાર": 9170,
      "સંતમાં": 9171,
      "સંતનાં": 9172,
      "સંતમંડળી": 9173,
      "સર્ગ": 9174,
      "સર્વા": 9175,
      "પોથી": 9176,
      "પોતી": 9177,
      "પોળ્ય": 9178,
      "દરબાર": 9179,
      "ગીધ": 9180,
      "ગીરા": 9181,
      "ગામનાં": 9182,
      "સુખરામ": 9183,
      "સુખબાઈ": 9184,
      "સુખિયો": 9185,
      "સુખડ્ય": 9186,
      "સુખસિંધુ": 9187,
      "નામને": 9188,
      "હેમત": 9189,
      "ક્ષિ": 9190,
      "ક્ષાનંદ": 9191,
      "ક્ષત્રિ": 9192,
      "ક્ષ્યપ": 9193,
      "પૂં": 9194,
      "સર્વેનો": 9195,
[...]
